{
  "added_tokens": [
    {
      "content": "<char>",
      "id": 0,
      "lstrip": false,
      "normalized": false,
      "rstrip": false,
      "single_word": false,
      "special": true
    },
    {
      "content": "</char>",
      "id": 1,
      "lstrip": false,
      "normalized": false,
      "rstrip": false,
      "single_word": false,
      "special": true
    },
    {
      "content": "<moral>",
      "id": 2,
      "lstrip": false,
      "normalized": false,
      "rstrip": false,
      "single_word": false,
      "special": true
    },
    {
      "content": "</moral>",
      "id": 3,
      "lstrip": false,
      "normalized": false,
      "rstrip": false,
      "single_word": false,
      "special": true
    },
    {
      "content": "<story>",
      "id": 4,
      "lstrip": false,
      "normalized": false,
      "rstrip": false,
      "single_word": false,
      "special": true
    },
    {
      "content": "</story>",
      "id": 5,
      "lstrip": false,
      "normalized": false,
      "rstrip": false,
      "single_word": false,
      "special": true
    }
  ],
  "decoder": null,
  "model": {
    "byte_fallback": false,
    "continuing_subword_prefix": null,
    "dropout": null,
    "end_of_word_suffix": null,
    "fuse_unk": false,
    "ignore_merges": false,
    "merges": [
      [
        "e",
        " "
      ],
      [
        " ",
        "t"
      ],
      [
        "h",
        "e "
      ],
      [
        " ",
        "a"
      ],
      [
        "e",
        "r"
      ],
      [
        "d",
        " "
      ],
      [
        "i",
        "n"
      ],
      [
        " t",
        "he "
      ],
      [
        "s",
        " "
      ],
      [
        "t",
        " "
      ],
      [
        "e",
        "d"
      ],
      [
        "o",
        "r"
      ],
      [
        "h",
        "a"
      ],
      [
        ".",
        " "
      ],
      [
        "e",
        "a"
      ],
      [
        ",",
        " "
      ],
      [
        "s",
        "t"
      ],
      [
        "y",
        " "
      ],
      [
        "e",
        "n"
      ],
      [
        " a",
        "n"
      ],
      [
        "o",
        "u"
      ],
      [
        "in",
        "g"
      ],
      [
        "o",
        "n"
      ],
      [
        " t",
        "o"
      ],
      [
        "t",
        "h"
      ],
      [
        "T",
        "he "
      ],
      [
        " a",
        " "
      ],
      [
        "w",
        "a"
      ],
      [
        "h",
        "e"
      ],
      [
        "r",
        "e"
      ],
      [
        "a",
        "n"
      ],
      [
        " an",
        "d "
      ],
      [
        " ",
        "s"
      ],
      [
        "a",
        "l"
      ],
      [
        "e",
        "d "
      ],
      [
        "\n",
        "\n"
      ],
      [
        "r",
        "i"
      ],
      [
        "l",
        "i"
      ],
      [
        "o",
        "w"
      ],
      [
        " ",
        "f"
      ],
      [
        "i",
        "s"
      ],
      [
        "e",
        "s"
      ],
      [
        "l",
        "l"
      ],
      [
        " to",
        " "
      ],
      [
        "i",
        "d"
      ],
      [
        "r",
        "o"
      ],
      [
        "er",
        " "
      ],
      [
        "ing",
        " "
      ],
      [
        "r",
        "a"
      ],
      [
        ".",
        "\n\n"
      ],
      [
        "i",
        "t"
      ],
      [
        "ha",
        "r"
      ],
      [
        "a",
        "r"
      ],
      [
        "th",
        "er"
      ],
      [
        " t",
        "ha"
      ],
      [
        ". ",
        "The "
      ],
      [
        "h",
        "i"
      ],
      [
        "o",
        "f"
      ],
      [
        " t",
        "he"
      ],
      [
        " an",
        "d"
      ],
      [
        "b",
        "e"
      ],
      [
        "ea",
        "r"
      ],
      [
        "\n",
        "<"
      ],
      [
        "e ",
        "t"
      ],
      [
        "g",
        "h"
      ],
      [
        "w",
        "i"
      ],
      [
        "o",
        "o"
      ],
      [
        "r",
        "ea"
      ],
      [
        "m",
        "or"
      ],
      [
        "'",
        "s "
      ],
      [
        "st",
        "or"
      ],
      [
        "e",
        "l"
      ],
      [
        "g",
        "e"
      ],
      [
        "i",
        "r"
      ],
      [
        "l",
        "a"
      ],
      [
        "l",
        "e "
      ],
      [
        "b",
        "u"
      ],
      [
        "v",
        "er"
      ],
      [
        "u",
        "n"
      ],
      [
        "s",
        "a"
      ],
      [
        "h",
        "er"
      ],
      [
        " tha",
        "t "
      ],
      [
        "c",
        "a"
      ],
      [
        "en",
        "d"
      ],
      [
        "wi",
        "th"
      ],
      [
        "o",
        " "
      ],
      [
        "c",
        "h"
      ],
      [
        ", ",
        "\""
      ],
      [
        "o",
        "l"
      ],
      [
        ",",
        " the "
      ],
      [
        "c",
        "k"
      ],
      [
        "d",
        "a"
      ],
      [
        "o",
        "m"
      ],
      [
        "u",
        "s"
      ],
      [
        "wa",
        "s "
      ],
      [
        "l",
        "e"
      ],
      [
        "c",
        "har"
      ],
      [
        "mor",
        "al"
      ],
      [
        "y",
        "ou"
      ],
      [
        "ri",
        "end"
      ],
      [
        "stor",
        "y"
      ],
      [
        " t",
        "h"
      ],
      [
        "t",
        "i"
      ],
      [
        "<",
        "/"
      ],
      [
        ">",
        "\n<"
      ],
      [
        "story",
        ">"
      ],
      [
        "m",
        "a"
      ],
      [
        ".",
        "\""
      ],
      [
        "e",
        "c"
      ],
      [
        "l",
        " "
      ],
      [
        "u",
        "r"
      ],
      [
        "v",
        "e "
      ],
      [
        "he",
        "l"
      ],
      [
        "ro",
        "m"
      ],
      [
        "en",
        " "
      ],
      [
        "f",
        "or"
      ],
      [
        "in",
        "d"
      ],
      [
        "p",
        "p"
      ],
      [
        "f",
        "u"
      ],
      [
        "hel",
        "p"
      ],
      [
        "n",
        "e"
      ],
      [
        ",",
        " a "
      ],
      [
        " and",
        " the "
      ],
      [
        "i",
        "t "
      ],
      [
        "t",
        " the "
      ],
      [
        "r",
        "u"
      ],
      [
        "ed",
        " to "
      ],
      [
        "w",
        "or"
      ],
      [
        ". ",
        "\""
      ],
      [
        "l",
        "o"
      ],
      [
        "ed",
        " the "
      ],
      [
        " the",
        "y "
      ],
      [
        "on",
        "g"
      ],
      [
        "t",
        "t"
      ],
      [
        "w",
        "h"
      ],
      [
        "r",
        "ou"
      ],
      [
        ".\n\n",
        "The "
      ],
      [
        "i",
        "l"
      ],
      [
        "ge",
        "ther"
      ],
      [
        "e t",
        "he "
      ],
      [
        "en",
        "t"
      ],
      [
        ". ",
        "S"
      ],
      [
        "e",
        "s "
      ],
      [
        "o",
        "ther"
      ],
      [
        " ",
        "c"
      ],
      [
        "s",
        "p"
      ],
      [
        "s",
        "h"
      ],
      [
        "\n\n",
        "The "
      ],
      [
        "'",
        "t "
      ],
      [
        "s",
        "he "
      ],
      [
        "h",
        "er "
      ],
      [
        "da",
        "y"
      ],
      [
        "ou",
        "l"
      ],
      [
        "n",
        "o"
      ],
      [
        "l",
        "y "
      ],
      [
        "is",
        "e "
      ],
      [
        "ed",
        " to"
      ],
      [
        "i",
        "m"
      ],
      [
        ", ",
        "bu"
      ],
      [
        "O",
        "n"
      ],
      [
        "gh",
        "t"
      ],
      [
        "ra",
        "b"
      ],
      [
        " ",
        "b"
      ],
      [
        ",",
        " and "
      ],
      [
        ". S",
        "he "
      ],
      [
        "p",
        "la"
      ],
      [
        "is",
        "h"
      ],
      [
        "k",
        "e "
      ],
      [
        "e",
        "t"
      ],
      [
        "f",
        "riend"
      ],
      [
        "hi",
        "s "
      ],
      [
        " ",
        "d"
      ],
      [
        "s",
        "k"
      ],
      [
        "B",
        "u"
      ],
      [
        ", ",
        "w"
      ],
      [
        "sa",
        "id"
      ],
      [
        "On",
        "e "
      ],
      [
        "i",
        "g"
      ],
      [
        ". ",
        "T"
      ],
      [
        "c",
        "e "
      ],
      [
        "i",
        "ll"
      ],
      [
        "u",
        "re"
      ],
      [
        "of",
        " "
      ],
      [
        "e",
        "p"
      ],
      [
        ",",
        " and the "
      ],
      [
        "e",
        "m"
      ],
      [
        "wor",
        "k"
      ],
      [
        "/",
        "story>"
      ],
      [
        "<",
        "char"
      ],
      [
        "\n<",
        "/story>"
      ],
      [
        "char",
        ">\n<"
      ],
      [
        "moral",
        ">"
      ],
      [
        "moral",
        ">\n<"
      ],
      [
        "</",
        "char>\n<"
      ],
      [
        "</",
        "moral>\n<"
      ],
      [
        "story>",
        "\n"
      ],
      [
        "<char",
        ">"
      ],
      [
        "</char>\n<",
        "moral>"
      ],
      [
        "</moral>\n<",
        "story>\n"
      ],
      [
        "with",
        " "
      ],
      [
        " f",
        "or"
      ],
      [
        "n",
        "ow"
      ],
      [
        "c",
        "an"
      ],
      [
        "e",
        "ver"
      ],
      [
        "wa",
        "y"
      ],
      [
        "m",
        " "
      ],
      [
        " ",
        "The "
      ],
      [
        "rea",
        "t"
      ],
      [
        "<char>",
        " a "
      ],
      [
        "ed",
        " a"
      ],
      [
        "wa",
        "t"
      ],
      [
        "in",
        " the "
      ],
      [
        "ha",
        "d "
      ],
      [
        "w",
        "ise "
      ],
      [
        "on",
        "e "
      ],
      [
        "c",
        "o"
      ],
      [
        " s",
        "a"
      ],
      [
        "s",
        " and "
      ],
      [
        "p",
        "a"
      ],
      [
        "rab",
        "b"
      ],
      [
        "g",
        "u"
      ],
      [
        "st",
        "r"
      ],
      [
        "n",
        "'t "
      ],
      [
        "oul",
        "d "
      ],
      [
        "es",
        "t "
      ],
      [
        ".",
        "\n</story>"
      ],
      [
        "s",
        " the "
      ],
      [
        "oo",
        "k"
      ],
      [
        "an",
        "d"
      ],
      [
        "!",
        "\""
      ],
      [
        "k",
        "e"
      ],
      [
        "an",
        "d "
      ],
      [
        "l",
        "ear"
      ],
      [
        "ed",
        " that "
      ],
      [
        "b",
        "ea"
      ],
      [
        " f",
        "riend"
      ],
      [
        "in",
        "d "
      ],
      [
        "it",
        "s "
      ],
      [
        "l",
        "y"
      ],
      [
        "ll",
        " "
      ],
      [
        " the",
        "ir"
      ],
      [
        "I",
        "n"
      ],
      [
        "ol",
        "d "
      ],
      [
        ".\"",
        "\n\nThe "
      ],
      [
        "li",
        "v"
      ],
      [
        "g",
        "i"
      ],
      [
        "?",
        "\""
      ],
      [
        "t",
        "o"
      ],
      [
        "n",
        "d"
      ],
      [
        "w",
        "er"
      ],
      [
        "f",
        "ish"
      ],
      [
        "p",
        "er"
      ],
      [
        "in",
        " "
      ],
      [
        "I",
        " "
      ],
      [
        "s",
        "e "
      ],
      [
        "g",
        "a"
      ],
      [
        "ch",
        " "
      ],
      [
        "on",
        " "
      ],
      [
        "said",
        ", \""
      ],
      [
        ". ",
        "H"
      ],
      [
        "g",
        "re"
      ],
      [
        " to",
        "gether"
      ],
      [
        "I",
        "'"
      ],
      [
        "lear",
        "n"
      ],
      [
        "e",
        "v"
      ],
      [
        "gh",
        "t "
      ],
      [
        "r",
        "y"
      ],
      [
        "m",
        "il"
      ],
      [
        "One ",
        "day"
      ],
      [
        "ing",
        " the "
      ],
      [
        "on",
        "e"
      ],
      [
        "lo",
        "v"
      ],
      [
        "q",
        "u"
      ],
      [
        "da",
        "y "
      ],
      [
        "ca",
        "m"
      ],
      [
        "l",
        "ow"
      ],
      [
        "oo",
        "d"
      ],
      [
        "W",
        "h"
      ],
      [
        ", bu",
        "t "
      ],
      [
        "k",
        "ind"
      ],
      [
        "u",
        "p"
      ],
      [
        "fu",
        "l "
      ],
      [
        "rom",
        " that "
      ],
      [
        "li",
        "z"
      ],
      [
        "wa",
        "s"
      ],
      [
        "c",
        "e"
      ],
      [
        "n",
        "t"
      ],
      [
        "rom that ",
        "day "
      ],
      [
        "s",
        "e"
      ],
      [
        "str",
        "ong"
      ],
      [
        "rom that day ",
        "on"
      ],
      [
        "ou",
        "s "
      ],
      [
        "l",
        "ook"
      ],
      [
        "b",
        "ir"
      ],
      [
        "ne",
        "w"
      ],
      [
        "s",
        ", "
      ],
      [
        "a",
        "t"
      ],
      [
        "r",
        "e "
      ],
      [
        "fu",
        "l"
      ],
      [
        "n",
        "es"
      ],
      [
        "o",
        "th"
      ],
      [
        "rea",
        "liz"
      ],
      [
        "f",
        "f"
      ],
      [
        "c",
        "ha"
      ],
      [
        "ow",
        "l"
      ],
      [
        ". ",
        "A"
      ],
      [
        "ha",
        "pp"
      ],
      [
        "e",
        "x"
      ],
      [
        "h",
        "ear"
      ],
      [
        "ow",
        "n"
      ],
      [
        "k",
        " "
      ],
      [
        "wer",
        "e "
      ],
      [
        "k",
        "now"
      ],
      [
        "im",
        "al"
      ],
      [
        "s",
        "un"
      ],
      [
        "b",
        "a"
      ],
      [
        "us",
        "t "
      ],
      [
        "ou",
        "t"
      ],
      [
        "om",
        "e"
      ],
      [
        "s",
        "s"
      ],
      [
        "s",
        "har"
      ],
      [
        "p",
        "l"
      ],
      [
        "d",
        "e"
      ],
      [
        "u",
        "m"
      ],
      [
        "b",
        "e "
      ],
      [
        "c",
        "he"
      ],
      [
        ". T",
        "he"
      ],
      [
        "ed",
        " and "
      ],
      [
        "d",
        "er"
      ],
      [
        "F",
        "rom that day on"
      ],
      [
        "s",
        "ea"
      ],
      [
        "f",
        "e"
      ],
      [
        "</moral>\n<story>\n",
        "In"
      ],
      [
        "b",
        "l"
      ],
      [
        " ",
        "w"
      ],
      [
        "of",
        " the "
      ],
      [
        "u",
        "ti"
      ],
      [
        ". ",
        "Bu"
      ],
      [
        "c",
        "reat"
      ],
      [
        "g",
        "o"
      ],
      [
        "b",
        "ra"
      ],
      [
        "d",
        "i"
      ],
      [
        "en",
        "t "
      ],
      [
        "l",
        "ea"
      ],
      [
        "c",
        "ar"
      ],
      [
        "ed",
        ", \""
      ],
      [
        " a",
        "b"
      ],
      [
        " a",
        "sk"
      ],
      [
        " s",
        "he "
      ],
      [
        ",",
        "\""
      ],
      [
        "id",
        "n't "
      ],
      [
        "i",
        "c"
      ],
      [
        "f",
        "a"
      ],
      [
        ",",
        " and"
      ],
      [
        "</char>\n<moral>",
        " "
      ],
      [
        "li",
        "tt"
      ],
      [
        "i",
        "s "
      ],
      [
        ". H",
        "e "
      ],
      [
        ".\n\n",
        "A"
      ],
      [
        "ed",
        ", "
      ],
      [
        "wise ",
        "old "
      ],
      [
        "Y",
        "ou"
      ],
      [
        "h",
        "id"
      ],
      [
        "n",
        "a"
      ],
      [
        "m",
        "i"
      ],
      [
        "al",
        "l"
      ],
      [
        "ea",
        "ch "
      ],
      [
        "you",
        " "
      ],
      [
        "st",
        "en"
      ],
      [
        "m",
        "o"
      ],
      [
        ". The",
        "y "
      ],
      [
        ".\n\n",
        "One day"
      ],
      [
        ",",
        " they "
      ],
      [
        "ha",
        "t "
      ],
      [
        "o",
        "p"
      ],
      [
        "w",
        "e"
      ],
      [
        "help",
        " "
      ],
      [
        "ever",
        "y"
      ],
      [
        " a",
        "l"
      ],
      [
        "v",
        "e"
      ],
      [
        "v",
        "er "
      ],
      [
        "a",
        " "
      ],
      [
        "s",
        "ur"
      ],
      [
        "hi",
        "m"
      ],
      [
        ".\"",
        " The "
      ],
      [
        "p",
        "u"
      ],
      [
        "ou",
        "t "
      ],
      [
        "l",
        "es"
      ],
      [
        "c",
        "om"
      ],
      [
        " a",
        "ll"
      ],
      [
        " to",
        " the "
      ],
      [
        "d",
        "e "
      ],
      [
        "li",
        "sten"
      ],
      [
        "tt",
        "er"
      ],
      [
        " t",
        "a"
      ],
      [
        " th",
        "ou"
      ],
      [
        "bir",
        "d"
      ],
      [
        "ou",
        "r"
      ],
      [
        "wa",
        "nt"
      ],
      [
        "ar",
        "k"
      ],
      [
        "wh",
        "o "
      ],
      [
        "litt",
        "le "
      ],
      [
        " s",
        "h"
      ],
      [
        "g",
        "e "
      ],
      [
        "s",
        "el"
      ],
      [
        "From that day on",
        ", the "
      ],
      [
        " for",
        " "
      ],
      [
        "o",
        "x"
      ],
      [
        "creat",
        "ure"
      ],
      [
        "friend",
        "s"
      ],
      [
        "for",
        " "
      ],
      [
        "d",
        "ec"
      ],
      [
        ". ",
        "I"
      ],
      [
        "no",
        "t "
      ],
      [
        "m",
        "on"
      ],
      [
        "r",
        "ow"
      ],
      [
        "ed",
        " a "
      ],
      [
        "re",
        "t"
      ],
      [
        " their",
        " "
      ],
      [
        "f",
        "rom"
      ],
      [
        " friend",
        "s"
      ],
      [
        ", ",
        "she "
      ],
      [
        "g",
        "an"
      ],
      [
        "al",
        " "
      ],
      [
        "c",
        "on"
      ],
      [
        " the",
        "m"
      ],
      [
        "b",
        "y"
      ],
      [
        "g",
        "er"
      ],
      [
        "*",
        "*"
      ],
      [
        " sa",
        "id"
      ],
      [
        "rabb",
        "it"
      ],
      [
        "u",
        "st"
      ],
      [
        "ec",
        "t"
      ],
      [
        "e",
        "y"
      ],
      [
        "imal",
        "s "
      ],
      [
        "l",
        "ou"
      ],
      [
        "bea",
        "uti"
      ],
      [
        "ar",
        "d"
      ],
      [
        "f",
        "i"
      ],
      [
        "each ",
        "other"
      ],
      [
        "oth",
        "er "
      ],
      [
        "w",
        "e "
      ],
      [
        "st",
        "ar"
      ],
      [
        "b",
        "ig"
      ],
      [
        "j",
        "o"
      ],
      [
        "low",
        "er"
      ],
      [
        "e t",
        "o "
      ],
      [
        "W",
        "e "
      ],
      [
        "b",
        "le "
      ],
      [
        "n",
        " "
      ],
      [
        "can",
        " "
      ],
      [
        ", w",
        "her"
      ],
      [
        "kind",
        "nes"
      ],
      [
        "s",
        "t "
      ],
      [
        "o",
        "ver"
      ],
      [
        "pla",
        "y"
      ],
      [
        "rou",
        "gh"
      ],
      [
        "ow",
        "l "
      ],
      [
        "e",
        "t "
      ],
      [
        "d",
        "idn't "
      ],
      [
        "g",
        "ra"
      ],
      [
        "o",
        "c"
      ],
      [
        "ed ",
        "in"
      ],
      [
        "b",
        "er"
      ],
      [
        "cam",
        "e "
      ],
      [
        "'",
        "re "
      ],
      [
        "n",
        "d "
      ],
      [
        "be",
        "gan"
      ],
      [
        "c",
        "i"
      ],
      [
        "p",
        "e"
      ],
      [
        "m",
        "e"
      ],
      [
        "Wh",
        "y "
      ],
      [
        "ha",
        "t"
      ],
      [
        "s",
        ". The "
      ],
      [
        "lov",
        "ed to "
      ],
      [
        "b",
        "y "
      ],
      [
        "g",
        "ent"
      ],
      [
        "rabb",
        "it "
      ],
      [
        "wat",
        "ch"
      ],
      [
        "w",
        "ould "
      ],
      [
        " to",
        " s"
      ],
      [
        "p",
        "i"
      ],
      [
        "wat",
        "er"
      ],
      [
        "ill",
        "a"
      ],
      [
        "learn",
        "ed that "
      ],
      [
        "f",
        " "
      ],
      [
        "p",
        " "
      ],
      [
        " a ",
        "s"
      ],
      [
        ", w",
        "hi"
      ],
      [
        "ma",
        "ke "
      ],
      [
        " th",
        "rough"
      ],
      [
        "ha",
        "d"
      ],
      [
        " the ",
        "t"
      ],
      [
        "d",
        "is"
      ],
      [
        "!",
        " "
      ],
      [
        "d",
        "o"
      ],
      [
        "st",
        "a"
      ],
      [
        "ma",
        "de "
      ],
      [
        "realiz",
        "ed that "
      ],
      [
        "p",
        "ro"
      ],
      [
        "y",
        " a"
      ],
      [
        "ti",
        "on"
      ],
      [
        "o",
        "gether"
      ],
      [
        "b",
        "ri"
      ],
      [
        "c",
        "or"
      ],
      [
        "with",
        " the "
      ],
      [
        "un",
        "der"
      ],
      [
        "g",
        " "
      ],
      [
        "ha",
        "ve "
      ],
      [
        "f",
        "ox"
      ],
      [
        " s",
        "p"
      ],
      [
        "s",
        "o"
      ],
      [
        "om",
        "e "
      ],
      [
        "oul",
        "d"
      ],
      [
        "b",
        "le"
      ],
      [
        "m",
        "ea"
      ],
      [
        " a",
        "s "
      ],
      [
        "ma",
        "k"
      ],
      [
        "re",
        "e"
      ],
      [
        " t",
        "ri"
      ],
      [
        "wa",
        "r"
      ],
      [
        "</moral>\n<story>\nIn",
        " a "
      ],
      [
        " tha",
        "t"
      ],
      [
        "sa",
        "w"
      ],
      [
        "ol",
        "d"
      ],
      [
        "on",
        " the "
      ],
      [
        "h",
        "ow"
      ],
      [
        "hid",
        "d"
      ],
      [
        "j",
        "ust "
      ],
      [
        "m",
        "y "
      ],
      [
        "ck",
        " "
      ],
      [
        "sel",
        "f"
      ],
      [
        "f",
        "t"
      ],
      [
        "e",
        "st"
      ],
      [
        "ed",
        ". \""
      ],
      [
        "ti",
        "c"
      ],
      [
        "v",
        "illa"
      ],
      [
        "dec",
        "id"
      ],
      [
        "k",
        "ind "
      ],
      [
        "oo",
        "d "
      ],
      [
        "s",
        " a"
      ],
      [
        "pl",
        "or"
      ],
      [
        "bu",
        "il"
      ],
      [
        "mor",
        "e "
      ],
      [
        "you",
        "r"
      ],
      [
        "happ",
        "y"
      ],
      [
        "be",
        "ing "
      ],
      [
        " t",
        "ru"
      ],
      [
        "s",
        "ha"
      ],
      [
        " f",
        "rom"
      ],
      [
        "s",
        " they "
      ],
      [
        "other",
        " an"
      ],
      [
        "s",
        "wa"
      ],
      [
        " to",
        " f"
      ],
      [
        "n",
        "ear"
      ],
      [
        "r",
        "an"
      ],
      [
        "in",
        "k"
      ],
      [
        "look",
        "ed a"
      ],
      [
        "ed to",
        "gether"
      ],
      [
        "I'",
        "m"
      ],
      [
        "li",
        "ke "
      ],
      [
        "p",
        "rou"
      ],
      [
        "be",
        "came "
      ],
      [
        "i",
        "on"
      ],
      [
        "fe",
        "el"
      ],
      [
        " c",
        "an"
      ],
      [
        "ex",
        "plor"
      ],
      [
        " t",
        "rea"
      ],
      [
        "in",
        "y "
      ],
      [
        "s",
        "ure"
      ],
      [
        "t",
        "y"
      ],
      [
        ". Bu",
        "t "
      ],
      [
        "st",
        "er"
      ],
      [
        "creature",
        "s "
      ],
      [
        "hear",
        "t"
      ],
      [
        " a",
        "c"
      ],
      [
        "b",
        "o"
      ],
      [
        "m",
        "er"
      ],
      [
        " s",
        "har"
      ],
      [
        "s",
        " to "
      ],
      [
        "ca",
        "re"
      ],
      [
        "qu",
        "ir"
      ],
      [
        ".\"",
        "\n\n"
      ],
      [
        "al",
        "l "
      ],
      [
        "quir",
        "re"
      ],
      [
        "hi",
        "p"
      ],
      [
        "v",
        "al"
      ],
      [
        "on",
        "'t "
      ],
      [
        "es",
        " and "
      ],
      [
        "en",
        " the "
      ],
      [
        "star",
        "t"
      ],
      [
        "new",
        " "
      ],
      [
        "che",
        "d "
      ],
      [
        "every",
        "one "
      ],
      [
        "pa",
        "ss"
      ],
      [
        "el",
        "t "
      ],
      [
        "ing",
        " s"
      ],
      [
        "ur",
        "t"
      ],
      [
        "s",
        "i"
      ],
      [
        "em",
        "p"
      ],
      [
        " t",
        "im"
      ],
      [
        "f",
        "ou"
      ],
      [
        "h",
        "um"
      ],
      [
        "or",
        "to"
      ],
      [
        "rou",
        "nd"
      ],
      [
        "p",
        "ri"
      ],
      [
        "s",
        "mil"
      ],
      [
        "s",
        "id"
      ],
      [
        "g",
        "ard"
      ],
      [
        "re",
        "m"
      ],
      [
        "re",
        "f"
      ],
      [
        " to",
        "o"
      ],
      [
        "ed",
        ". The "
      ],
      [
        "work",
        " together"
      ],
      [
        "friend",
        "s "
      ],
      [
        "ing",
        "s "
      ],
      [
        "o",
        "pp"
      ],
      [
        "fish",
        " "
      ],
      [
        "s",
        ". "
      ],
      [
        "ed ",
        "with "
      ],
      [
        "h",
        "one"
      ],
      [
        ".\"",
        " "
      ],
      [
        " s",
        "mil"
      ],
      [
        "m",
        "ing"
      ],
      [
        "m",
        "p"
      ],
      [
        "ea",
        "l"
      ],
      [
        "ing",
        " to "
      ],
      [
        ".\n\n",
        "\""
      ],
      [
        "on",
        " a "
      ],
      [
        "e t",
        "o"
      ],
      [
        ", wher",
        "e "
      ],
      [
        "ga",
        "in"
      ],
      [
        "ed ",
        "up"
      ],
      [
        "p",
        "ar"
      ],
      [
        "o",
        "t"
      ],
      [
        " tha",
        "t the "
      ],
      [
        " through",
        " the "
      ],
      [
        "b",
        "est "
      ],
      [
        "an",
        "t"
      ],
      [
        "qu",
        "i"
      ],
      [
        "d",
        "d"
      ],
      [
        "c",
        "le"
      ],
      [
        "ev",
        "en "
      ],
      [
        "ca",
        "us"
      ],
      [
        " a",
        "way"
      ],
      [
        "f",
        "lower"
      ],
      [
        "ur",
        "n"
      ],
      [
        "'",
        "s"
      ],
      [
        "s",
        "o "
      ],
      [
        "h",
        "ome"
      ],
      [
        "hidd",
        "en "
      ],
      [
        "wh",
        "en "
      ],
      [
        "la",
        "u"
      ],
      [
        "ra",
        "c"
      ],
      [
        "re",
        "d "
      ],
      [
        "hear",
        "t "
      ],
      [
        " said",
        ", \""
      ],
      [
        "?",
        " "
      ],
      [
        "ea",
        "k"
      ],
      [
        ", bu",
        "t the "
      ],
      [
        "sea",
        "gu"
      ],
      [
        "it",
        "y "
      ],
      [
        "pa",
        "th"
      ],
      [
        "a",
        "t "
      ],
      [
        "ark",
        "l"
      ],
      [
        "n",
        "y "
      ],
      [
        "of",
        "t"
      ],
      [
        "s",
        "he"
      ],
      [
        "with",
        " a "
      ],
      [
        "d",
        "own"
      ],
      [
        "f",
        "ill"
      ],
      [
        "e",
        ", "
      ],
      [
        "c",
        "al"
      ],
      [
        "ed",
        ", the "
      ],
      [
        "jo",
        "y"
      ],
      [
        "s",
        "ome"
      ],
      [
        "r",
        "y "
      ],
      [
        ", whi",
        "le "
      ],
      [
        " thou",
        "ght"
      ],
      [
        "ep",
        " "
      ],
      [
        "l",
        "ong"
      ],
      [
        "t",
        "y "
      ],
      [
        ".\n\nOne day",
        ", a "
      ],
      [
        "wh",
        "is"
      ],
      [
        "m",
        "ed "
      ],
      [
        "l",
        "and"
      ],
      [
        ".\n\nA",
        "s the "
      ],
      [
        "ould",
        "n't "
      ],
      [
        "gent",
        "le "
      ],
      [
        "sa",
        "d"
      ],
      [
        "!\"",
        "\n\nThe "
      ],
      [
        "an",
        "ce "
      ],
      [
        "p",
        "re"
      ],
      [
        "ol",
        "or"
      ],
      [
        "w",
        "hat "
      ],
      [
        "c",
        "rab"
      ],
      [
        "w",
        " "
      ],
      [
        "</moral>\n<story>\nIn",
        " the "
      ],
      [
        "tter",
        "f"
      ],
      [
        "i",
        "d "
      ],
      [
        "s",
        "na"
      ],
      [
        "under",
        "st"
      ],
      [
        "v",
        "es"
      ],
      [
        "m",
        "an"
      ],
      [
        "I'",
        "m "
      ],
      [
        " f",
        "a"
      ],
      [
        "m",
        "ou"
      ],
      [
        "a",
        "sk"
      ],
      [
        "sun",
        "ny "
      ],
      [
        "p",
        "ol"
      ],
      [
        "whis",
        "per"
      ],
      [
        "c",
        "ould "
      ],
      [
        " ab",
        "out "
      ],
      [
        " and ",
        "said, \""
      ],
      [
        "p",
        "o"
      ],
      [
        " f",
        "ish"
      ],
      [
        "ing",
        " a "
      ],
      [
        "s ",
        "were "
      ],
      [
        "g",
        "g"
      ],
      [
        "work",
        "ed together"
      ],
      [
        "p",
        "rom"
      ],
      [
        "ff",
        "er"
      ],
      [
        " ",
        "was "
      ],
      [
        "un",
        "g"
      ],
      [
        ". I",
        "t "
      ],
      [
        "s",
        "quirre"
      ],
      [
        "m",
        "e "
      ],
      [
        "u",
        "l"
      ],
      [
        "ro",
        "ck"
      ],
      [
        "beauti",
        "ful"
      ],
      [
        "ed and ",
        "said, \""
      ],
      [
        "n",
        "i"
      ],
      [
        " a",
        "pp"
      ],
      [
        "cha",
        "n"
      ],
      [
        "ca",
        "t"
      ],
      [
        "les",
        "s "
      ],
      [
        " th",
        "en"
      ],
      [
        "Bu",
        "t "
      ],
      [
        "ed ",
        "her"
      ],
      [
        "sur",
        "e "
      ],
      [
        ", bu",
        "t"
      ],
      [
        " al",
        "way"
      ],
      [
        "I",
        " d"
      ],
      [
        " tha",
        "n"
      ],
      [
        "beauti",
        "ful "
      ],
      [
        "bra",
        "ve "
      ],
      [
        "gre",
        "ed"
      ],
      [
        "bu",
        "tterf"
      ],
      [
        "ea",
        "ther"
      ],
      [
        "pu",
        "s "
      ],
      [
        "e",
        "bra"
      ],
      [
        "an",
        "t "
      ],
      [
        "bir",
        "d "
      ],
      [
        "ga",
        "ther"
      ],
      [
        "ogether",
        ", they "
      ],
      [
        "j",
        "ust"
      ],
      [
        "z",
        "y "
      ],
      [
        " s",
        "e"
      ],
      [
        "m",
        "u"
      ],
      [
        "h",
        "o"
      ],
      [
        "co",
        "ver"
      ],
      [
        "ru",
        "th"
      ],
      [
        "re",
        "p"
      ],
      [
        "mon",
        "ke"
      ],
      [
        "th",
        "ou"
      ],
      [
        "i",
        "ce "
      ],
      [
        "s",
        "er"
      ],
      [
        "liv",
        "ed"
      ],
      [
        "began",
        " to "
      ],
      [
        "mi",
        "sta"
      ],
      [
        "f",
        "er"
      ],
      [
        "prou",
        "d "
      ],
      [
        "a",
        "st"
      ],
      [
        "!\"",
        " The "
      ],
      [
        "m",
        "is"
      ],
      [
        " t",
        "re"
      ],
      [
        "e ",
        "and "
      ],
      [
        "r",
        "ong"
      ],
      [
        "pol",
        "o"
      ],
      [
        "wor",
        "d"
      ],
      [
        " thou",
        "ght "
      ],
      [
        "orto",
        "ise "
      ],
      [
        "th",
        "ing"
      ],
      [
        "s",
        "y "
      ],
      [
        "oo",
        "se "
      ],
      [
        "had ",
        "be"
      ],
      [
        "pla",
        "in"
      ],
      [
        "?\"",
        "\n\nThe "
      ],
      [
        ":",
        " "
      ],
      [
        "d",
        "o "
      ],
      [
        "oc",
        "to"
      ],
      [
        "decid",
        "ed to "
      ],
      [
        "sp",
        "ec"
      ],
      [
        " t",
        "al"
      ],
      [
        "ing",
        " and "
      ],
      [
        "ed",
        ", and the "
      ],
      [
        "wise old ",
        "owl"
      ],
      [
        "?\"",
        " The "
      ],
      [
        "e",
        "ll"
      ],
      [
        "an",
        "imals "
      ],
      [
        "g",
        "rou"
      ],
      [
        "v",
        "o"
      ],
      [
        "ri",
        "ght"
      ],
      [
        "gard",
        "en"
      ],
      [
        "b",
        "ear"
      ],
      [
        "ba",
        "ck"
      ],
      [
        "ver",
        "y "
      ],
      [
        ", w",
        "e "
      ],
      [
        "b",
        "r"
      ],
      [
        " a",
        "r"
      ],
      [
        "rep",
        "li"
      ],
      [
        "prom",
        "is"
      ],
      [
        "**",
        "The "
      ],
      [
        "h",
        "ome "
      ],
      [
        "un",
        "n"
      ],
      [
        "ber",
        "ri"
      ],
      [
        "s",
        "ec"
      ],
      [
        "for",
        " a "
      ],
      [
        " t",
        "ry"
      ],
      [
        "y",
        ", "
      ],
      [
        "em",
        "ber"
      ],
      [
        "c",
        "ro"
      ],
      [
        " ta",
        "k"
      ],
      [
        "polo",
        "gi"
      ],
      [
        "st",
        "y "
      ],
      [
        "buil",
        "d"
      ],
      [
        ". ",
        "From that day on, the "
      ],
      [
        "other an",
        "imals "
      ],
      [
        "pologi",
        "z"
      ],
      [
        "s",
        "ly "
      ],
      [
        "in",
        "t"
      ],
      [
        "m",
        "ong"
      ],
      [
        "th",
        "ing "
      ],
      [
        "h",
        "ea"
      ],
      [
        " th",
        "ink"
      ],
      [
        "ur",
        "e "
      ],
      [
        " trea",
        "sure"
      ],
      [
        "m",
        "b"
      ],
      [
        "an",
        "c"
      ],
      [
        "!\"",
        " "
      ],
      [
        "mea",
        "n"
      ],
      [
        ",",
        " a"
      ],
      [
        "ha",
        "n"
      ],
      [
        "fu",
        "ll"
      ],
      [
        "to",
        " the "
      ],
      [
        "f",
        "elt "
      ],
      [
        "know",
        "n"
      ],
      [
        "v",
        "e the "
      ],
      [
        "li",
        "k"
      ],
      [
        "ed ",
        "by"
      ],
      [
        "an",
        "g"
      ],
      [
        " all",
        " the "
      ],
      [
        "les",
        "s"
      ],
      [
        "lau",
        "gh"
      ],
      [
        "wh",
        "en"
      ],
      [
        "'",
        "t"
      ],
      [
        "w",
        "ind"
      ],
      [
        "ba",
        "d"
      ],
      [
        "rac",
        "co"
      ],
      [
        "our",
        " "
      ],
      [
        "th",
        "er "
      ],
      [
        "sp",
        "arkl"
      ],
      [
        "h",
        "in"
      ],
      [
        "stor",
        "m "
      ],
      [
        "c",
        "hi"
      ],
      [
        "th",
        "e"
      ],
      [
        "mo",
        "st "
      ],
      [
        "a",
        "y"
      ],
      [
        "sa",
        "y"
      ],
      [
        "</moral>\n<story>\n",
        "**The "
      ],
      [
        "c",
        "olor"
      ],
      [
        "villa",
        "ger"
      ],
      [
        "other",
        "s "
      ],
      [
        "it",
        "y"
      ],
      [
        "ne",
        "ed"
      ],
      [
        "bird",
        "s "
      ],
      [
        ", ",
        "he "
      ],
      [
        " friend",
        "s "
      ],
      [
        "ey",
        "es "
      ],
      [
        "ow",
        " "
      ],
      [
        "lou",
        "d"
      ],
      [
        "t",
        "re"
      ],
      [
        "f",
        "le"
      ],
      [
        "**",
        "\n\n"
      ],
      [
        " t",
        "his "
      ],
      [
        "d",
        "u"
      ],
      [
        "no",
        "t"
      ],
      [
        "in",
        "c"
      ],
      [
        "liv",
        "ed "
      ],
      [
        " alway",
        "s "
      ],
      [
        "ed ",
        "her "
      ],
      [
        "other",
        "s"
      ],
      [
        "m",
        "es"
      ],
      [
        ". Bu",
        "t"
      ],
      [
        "for",
        " the "
      ],
      [
        "m",
        "om"
      ],
      [
        "c",
        "ri"
      ],
      [
        "p",
        "ea"
      ],
      [
        "l",
        "d"
      ],
      [
        "ca",
        "st"
      ],
      [
        "ro",
        "a"
      ],
      [
        "en",
        "er"
      ],
      [
        "m",
        "el"
      ],
      [
        "i",
        "ous "
      ],
      [
        "t",
        "e "
      ],
      [
        "her",
        "e"
      ],
      [
        "be",
        "h"
      ],
      [
        "u",
        "ri"
      ],
      [
        "ea",
        "g"
      ],
      [
        "rem",
        "ember"
      ],
      [
        "us",
        "h"
      ],
      [
        "seagu",
        "ll"
      ],
      [
        "L",
        "et"
      ],
      [
        "th",
        " "
      ],
      [
        " b",
        "e "
      ],
      [
        "ne",
        "st"
      ],
      [
        "f",
        "ar"
      ],
      [
        " ta",
        "ke "
      ],
      [
        "ed to",
        " the "
      ],
      [
        "ing",
        "s"
      ],
      [
        "wa",
        "l"
      ],
      [
        ",\"",
        " she "
      ],
      [
        "ed",
        " that the "
      ],
      [
        ", ",
        "who "
      ],
      [
        "G",
        "ent"
      ],
      [
        "har",
        "mon"
      ],
      [
        " t",
        "ea"
      ],
      [
        "ou",
        "t the "
      ],
      [
        " th",
        "en "
      ],
      [
        "You",
        "'re "
      ],
      [
        "m",
        "in"
      ],
      [
        "help",
        "ing "
      ],
      [
        "lea",
        "d"
      ],
      [
        "c",
        "li"
      ],
      [
        " ab",
        "out"
      ],
      [
        "s",
        ", a "
      ],
      [
        "g",
        "row"
      ],
      [
        "m",
        "ust "
      ],
      [
        "want",
        " to "
      ],
      [
        "gra",
        "t"
      ],
      [
        "wa",
        "y "
      ],
      [
        "look",
        "ed "
      ],
      [
        "bri",
        "ght"
      ],
      [
        " an",
        " "
      ],
      [
        "f",
        "ood"
      ],
      [
        "li",
        "ght"
      ],
      [
        " f",
        "lower"
      ],
      [
        "mom",
        "ent"
      ],
      [
        "f",
        "t "
      ],
      [
        ". ",
        "One day"
      ],
      [
        "j",
        "u"
      ],
      [
        "care",
        "full"
      ],
      [
        "re",
        "t "
      ],
      [
        "en",
        "g"
      ],
      [
        "wh",
        "o"
      ],
      [
        "c",
        "row"
      ],
      [
        "from",
        " "
      ],
      [
        "B",
        "ra"
      ],
      [
        "ind",
        " a "
      ],
      [
        " f",
        "ood"
      ],
      [
        "caus",
        "e "
      ],
      [
        "rea",
        "d"
      ],
      [
        "ca",
        "ve"
      ],
      [
        "con",
        "f"
      ],
      [
        "g",
        "er "
      ],
      [
        "fou",
        "nd"
      ],
      [
        "ing",
        " a"
      ],
      [
        "looked a",
        "t "
      ],
      [
        "es",
        "er"
      ],
      [
        "na",
        "med "
      ],
      [
        "l",
        "u"
      ],
      [
        " to",
        "o "
      ],
      [
        "ha",
        "v"
      ],
      [
        "ri",
        "ver"
      ],
      [
        ", ",
        "s"
      ],
      [
        "e",
        "el"
      ],
      [
        "co",
        "ll"
      ],
      [
        "strong",
        "er"
      ],
      [
        "ma",
        "g"
      ],
      [
        "st",
        "ea"
      ],
      [
        "gi",
        "ve "
      ],
      [
        "be",
        "for"
      ],
      [
        "fa",
        "mil"
      ],
      [
        "ke",
        "ep"
      ],
      [
        "your",
        " "
      ],
      [
        "ul",
        "t"
      ],
      [
        ".\n\nA",
        "s they "
      ],
      [
        "en",
        "gu"
      ],
      [
        "st",
        "ru"
      ],
      [
        "o",
        "b"
      ],
      [
        "in",
        " a "
      ],
      [
        "ing",
        " that "
      ],
      [
        "st",
        "er "
      ],
      [
        " an",
        "y"
      ],
      [
        "a",
        "ble "
      ],
      [
        "um",
        "bl"
      ],
      [
        "w",
        "ind "
      ],
      [
        "happ",
        "y "
      ],
      [
        "a",
        "k"
      ],
      [
        "qui",
        "ck"
      ],
      [
        "repli",
        "ed, \""
      ],
      [
        "kindnes",
        "s "
      ],
      [
        "lou",
        "d "
      ],
      [
        "S",
        "t"
      ],
      [
        ".\n\n",
        "From that day on, the "
      ],
      [
        "big",
        " "
      ],
      [
        "it",
        "e "
      ],
      [
        "pla",
        "ce"
      ],
      [
        "Bu",
        "t the "
      ],
      [
        "o",
        "s"
      ],
      [
        "w",
        "is"
      ],
      [
        "own",
        " "
      ],
      [
        "on",
        "ke"
      ],
      [
        "underst",
        "and"
      ],
      [
        ". T",
        "ogether, they "
      ],
      [
        "wi",
        "m"
      ],
      [
        "ret",
        "urn"
      ],
      [
        "l",
        "ed"
      ],
      [
        "wise old ",
        "owl "
      ],
      [
        "h",
        "or"
      ],
      [
        "for a ",
        "moment"
      ],
      [
        "sna",
        "ke "
      ],
      [
        "her",
        "e "
      ],
      [
        "ic",
        "y "
      ],
      [
        " can",
        " "
      ],
      [
        "w",
        "ood"
      ],
      [
        "n",
        "'t"
      ],
      [
        "f",
        "la"
      ],
      [
        "over",
        " the "
      ],
      [
        " f",
        "i"
      ],
      [
        "no",
        "tic"
      ],
      [
        "com",
        "e "
      ],
      [
        "ed ",
        "with"
      ],
      [
        "s",
        "u"
      ],
      [
        "near",
        "by "
      ],
      [
        "hat",
        "'s "
      ],
      [
        "cle",
        "ver "
      ],
      [
        "ep",
        "t"
      ],
      [
        "m",
        "y"
      ],
      [
        "f",
        "ro"
      ],
      [
        "from",
        " the "
      ],
      [
        ". Bu",
        "t the "
      ],
      [
        "nes",
        "s "
      ],
      [
        "no",
        "dd"
      ],
      [
        "s",
        "c"
      ],
      [
        ", ",
        "it "
      ],
      [
        "or",
        "t"
      ],
      [
        "le",
        "'s "
      ],
      [
        " a",
        "gain"
      ],
      [
        ",\"",
        " "
      ],
      [
        "ex",
        "plain"
      ],
      [
        ", ",
        "feel"
      ],
      [
        "kind",
        " and "
      ],
      [
        "g",
        "r"
      ],
      [
        "d",
        "om"
      ],
      [
        "Gent",
        "le "
      ],
      [
        "strong",
        " "
      ],
      [
        " d",
        "i"
      ],
      [
        "s",
        ".\n\nThe "
      ],
      [
        "p",
        "engu"
      ],
      [
        "ro",
        "o"
      ],
      [
        "ey",
        "es"
      ],
      [
        "y",
        " and "
      ],
      [
        "ge",
        "st"
      ],
      [
        "her",
        " f"
      ],
      [
        "Let",
        "'s "
      ],
      [
        "pro",
        "t"
      ],
      [
        "ar",
        " "
      ],
      [
        ". A",
        " "
      ],
      [
        "fox",
        " "
      ],
      [
        "s",
        ", and "
      ],
      [
        "gi",
        "v"
      ],
      [
        "id",
        "ea"
      ],
      [
        "l",
        "d "
      ],
      [
        "lov",
        "ed to"
      ],
      [
        "dis",
        "cover"
      ],
      [
        "ing",
        " for"
      ],
      [
        " ask",
        "ed the "
      ],
      [
        "wi",
        "ll"
      ],
      [
        "lo",
        "y"
      ],
      [
        "saw",
        " the "
      ],
      [
        "har",
        "e "
      ],
      [
        "t",
        " a "
      ],
      [
        "a",
        "b"
      ],
      [
        "i",
        "al"
      ],
      [
        "ed",
        ".\n\nThe "
      ],
      [
        "u",
        "s "
      ],
      [
        "a",
        "pp"
      ],
      [
        "ti",
        "ve "
      ],
      [
        "sp",
        "o"
      ],
      [
        "ing",
        ", \""
      ],
      [
        " said",
        " the "
      ],
      [
        " tri",
        "ck"
      ],
      [
        "co",
        "zy "
      ],
      [
        "e",
        ". The "
      ],
      [
        " tal",
        "k"
      ],
      [
        "w",
        "rong"
      ],
      [
        "l",
        "e the "
      ],
      [
        "ea",
        "t"
      ],
      [
        "ed",
        ", and "
      ],
      [
        ", wher",
        "e the "
      ],
      [
        "s",
        " and"
      ],
      [
        "f",
        "ir"
      ],
      [
        "ec",
        "t "
      ],
      [
        "v",
        "is"
      ],
      [
        " al",
        "one"
      ],
      [
        " th",
        "is"
      ],
      [
        "want",
        "ed to "
      ],
      [
        ". ",
        "We "
      ],
      [
        "ex",
        "c"
      ],
      [
        "st",
        "on"
      ],
      [
        "ed",
        "ge"
      ],
      [
        "n",
        "o "
      ],
      [
        ", and",
        " they "
      ],
      [
        "st",
        "umbl"
      ],
      [
        "ever",
        "y "
      ],
      [
        "thou",
        "ght"
      ],
      [
        "I ",
        "was "
      ],
      [
        "Bra",
        "ve "
      ],
      [
        "bu",
        "sy "
      ],
      [
        "said",
        ". \""
      ],
      [
        "ear",
        "ch"
      ],
      [
        "ed",
        " that"
      ],
      [
        "st",
        "ri"
      ],
      [
        " tha",
        "n "
      ],
      [
        "k",
        "new"
      ],
      [
        "s",
        "car"
      ],
      [
        "ig",
        " "
      ],
      [
        "oth",
        " "
      ],
      [
        "octo",
        "pus "
      ],
      [
        "g",
        "ru"
      ],
      [
        "har",
        "d"
      ],
      [
        "di",
        "ffer"
      ],
      [
        "sh",
        "iny "
      ],
      [
        "sur",
        "pri"
      ],
      [
        "we",
        "et "
      ],
      [
        "b",
        "ro"
      ],
      [
        " c",
        "reat"
      ],
      [
        "s",
        "m"
      ],
      [
        "stru",
        "gg"
      ],
      [
        "was",
        " a "
      ],
      [
        "help",
        "ed "
      ],
      [
        "be",
        "cause "
      ],
      [
        "other an",
        "imal"
      ],
      [
        "how",
        " "
      ],
      [
        "I'm",
        " s"
      ],
      [
        "par",
        "ro"
      ],
      [
        "c",
        "ry"
      ],
      [
        "wa",
        "s the "
      ],
      [
        "be",
        "et"
      ],
      [
        "be",
        "e "
      ],
      [
        " ac",
        "c"
      ],
      [
        "gra",
        "s"
      ],
      [
        "bea",
        "ver"
      ],
      [
        "fle",
        "w"
      ],
      [
        " the",
        "y"
      ],
      [
        "day",
        "s "
      ],
      [
        " a",
        "ll "
      ],
      [
        " tri",
        "ed to "
      ],
      [
        "h",
        "ou"
      ],
      [
        "squirre",
        "l"
      ],
      [
        "friend",
        "ly "
      ],
      [
        "str",
        "eng"
      ],
      [
        "g",
        "reat"
      ],
      [
        "h",
        "ung"
      ],
      [
        "cha",
        "s"
      ],
      [
        "ar",
        "d "
      ],
      [
        "t",
        "'s "
      ],
      [
        "war",
        "m"
      ],
      [
        "d",
        "y"
      ],
      [
        "pa",
        "ti"
      ],
      [
        "c",
        "es"
      ],
      [
        "ind",
        "e"
      ],
      [
        "ed in",
        " a "
      ],
      [
        "h",
        "om"
      ],
      [
        "known",
        " for "
      ],
      [
        "inc",
        "er"
      ],
      [
        "t",
        "er"
      ],
      [
        "i",
        "f "
      ],
      [
        "b",
        "en"
      ],
      [
        "sec",
        "ret"
      ],
      [
        "sp",
        "id"
      ],
      [
        "m",
        "et"
      ],
      [
        "sh",
        "in"
      ],
      [
        "b",
        "ran"
      ],
      [
        "fou",
        "nd "
      ],
      [
        "lov",
        "ed "
      ],
      [
        " the",
        "m "
      ],
      [
        "al",
        "ly "
      ],
      [
        "c",
        "ou"
      ],
      [
        "ig",
        "n"
      ],
      [
        "g",
        "ro"
      ],
      [
        "start",
        "ed to "
      ],
      [
        ". T",
        "his "
      ],
      [
        "pe",
        "ck"
      ],
      [
        "gre",
        "w"
      ],
      [
        " sa",
        "d"
      ],
      [
        ", whi",
        "le the "
      ],
      [
        " an",
        "g"
      ],
      [
        "n",
        "eak"
      ],
      [
        "the",
        "ir"
      ],
      [
        "decid",
        "ed to"
      ],
      [
        " a",
        "s the "
      ],
      [
        ". ",
        "F"
      ],
      [
        " s",
        "wa"
      ],
      [
        "p",
        "us"
      ],
      [
        "mong",
        " the "
      ],
      [
        "on",
        "ly "
      ],
      [
        "grou",
        "p "
      ],
      [
        "her",
        " friends"
      ],
      [
        "c",
        "uri"
      ],
      [
        "listen",
        "ed "
      ],
      [
        "g",
        "la"
      ],
      [
        "stor",
        "m"
      ],
      [
        "ne",
        "ver "
      ],
      [
        "eag",
        "le "
      ],
      [
        "!\"",
        "\n\n"
      ],
      [
        "f",
        "ear"
      ],
      [
        "z",
        "z"
      ],
      [
        "s ",
        "she "
      ],
      [
        "che",
        "er"
      ],
      [
        ". ",
        "W"
      ],
      [
        "ci",
        "ous "
      ],
      [
        "sa",
        "f"
      ],
      [
        "in",
        "k "
      ],
      [
        "a",
        "c"
      ],
      [
        "war",
        "d"
      ],
      [
        "pla",
        "y "
      ],
      [
        "stumbl",
        "ed up"
      ],
      [
        "per",
        "ched "
      ],
      [
        ",\"",
        " said the "
      ],
      [
        ": ",
        "\""
      ],
      [
        "looked a",
        "t the "
      ],
      [
        "st",
        "eal"
      ],
      [
        "i",
        "f"
      ],
      [
        "ed",
        " through the "
      ],
      [
        "ge",
        "ther "
      ],
      [
        "th",
        "em"
      ],
      [
        "ha",
        "w"
      ],
      [
        "?\"",
        " "
      ],
      [
        "v",
        "es "
      ],
      [
        "and",
        " the "
      ],
      [
        "monke",
        "y "
      ],
      [
        "D",
        "e"
      ],
      [
        "d",
        "eser"
      ],
      [
        "di",
        "d "
      ],
      [
        " a",
        " t"
      ],
      [
        "shar",
        "ing "
      ],
      [
        "ol",
        "p"
      ],
      [
        "w",
        "el"
      ],
      [
        "el",
        "ebra"
      ],
      [
        "berri",
        "es"
      ],
      [
        "swa",
        "m"
      ],
      [
        "g",
        "ener"
      ],
      [
        "had be",
        "en "
      ],
      [
        "st",
        "i"
      ],
      [
        "ed ",
        "by "
      ],
      [
        "sh",
        "opp"
      ],
      [
        "st",
        "al"
      ],
      [
        "ma",
        "gi"
      ],
      [
        "s",
        "cor"
      ],
      [
        "?\"",
        " the "
      ],
      [
        "s",
        "w"
      ],
      [
        "I'm",
        " the "
      ],
      [
        "for",
        "est"
      ],
      [
        "wa",
        "ll"
      ],
      [
        "s",
        ". She "
      ],
      [
        "J",
        "ust"
      ],
      [
        "e t",
        "hat "
      ],
      [
        ".\n\n",
        "One "
      ],
      [
        "watch",
        "ing the "
      ],
      [
        "hi",
        "gh"
      ],
      [
        "go",
        "at "
      ],
      [
        "en",
        "d "
      ],
      [
        ". \"",
        "Why "
      ],
      [
        "bl",
        "oo"
      ],
      [
        ",\"",
        " the "
      ],
      [
        "or",
        "an"
      ],
      [
        "rou",
        "ble"
      ],
      [
        "You",
        " "
      ],
      [
        "Wh",
        "en "
      ],
      [
        "v",
        "i"
      ],
      [
        "work",
        "ing"
      ],
      [
        " ask",
        "ed, \""
      ],
      [
        "</moral>\n<story>\n",
        "On"
      ],
      [
        "s",
        "it"
      ],
      [
        "f",
        "ru"
      ],
      [
        "butterf",
        "ly "
      ],
      [
        " creat",
        "ure"
      ],
      [
        "co",
        "di"
      ],
      [
        "e the ",
        "best "
      ],
      [
        "c",
        "ru"
      ],
      [
        " w",
        "e "
      ],
      [
        "oc",
        "ea"
      ],
      [
        "t",
        "s "
      ],
      [
        "sh",
        "ould "
      ],
      [
        "s",
        ".\n</story>"
      ],
      [
        "de",
        "ep"
      ],
      [
        "la",
        "go"
      ],
      [
        " a",
        "t the "
      ],
      [
        "s",
        "ever"
      ],
      [
        "val",
        "u"
      ],
      [
        "im",
        "p"
      ],
      [
        "ep",
        "t "
      ],
      [
        "mou",
        "se "
      ],
      [
        "lo",
        "ve "
      ],
      [
        "k",
        "no"
      ],
      [
        "ou",
        "nd"
      ],
      [
        "him",
        "mer"
      ],
      [
        "ing",
        " f"
      ],
      [
        "cri",
        "ck"
      ],
      [
        "mista",
        "k"
      ],
      [
        "an",
        " "
      ],
      [
        "cam",
        "el"
      ],
      [
        " a",
        "pologiz"
      ],
      [
        "f",
        "al"
      ],
      [
        "fill",
        "ed with "
      ],
      [
        "it",
        "'s "
      ],
      [
        "ra",
        "ff"
      ],
      [
        "ro",
        "b"
      ],
      [
        "f",
        "eather"
      ],
      [
        "h",
        "urt"
      ],
      [
        "greed",
        "y "
      ],
      [
        "edge",
        "ho"
      ],
      [
        "help",
        " the "
      ],
      [
        "grat",
        "e"
      ],
      [
        "d",
        "anc"
      ],
      [
        " shar",
        "e "
      ],
      [
        ".\n\nOne day",
        ", while "
      ],
      [
        "d",
        "ra"
      ],
      [
        "at",
        "e "
      ],
      [
        "mis",
        "chi"
      ],
      [
        "y a",
        "re "
      ],
      [
        "her",
        " s"
      ],
      [
        "gre",
        "w "
      ],
      [
        "hone",
        "y"
      ],
      [
        "in",
        "to the "
      ],
      [
        "a",
        " b"
      ],
      [
        "every",
        "one"
      ],
      [
        "e",
        "f"
      ],
      [
        "o",
        "al"
      ],
      [
        "prou",
        "d"
      ],
      [
        " to ",
        "be "
      ],
      [
        "strugg",
        "l"
      ],
      [
        "b",
        "or"
      ],
      [
        "h",
        "ur"
      ],
      [
        "is",
        "her"
      ],
      [
        "em",
        "ent"
      ],
      [
        " a",
        "t "
      ],
      [
        "say",
        "ing, \""
      ],
      [
        "rea",
        "sure"
      ],
      [
        "tt",
        "er "
      ],
      [
        " f",
        "elt "
      ],
      [
        "?\"",
        " she "
      ],
      [
        "cat",
        "ch"
      ],
      [
        "ou",
        "gh"
      ],
      [
        "ge",
        "t "
      ],
      [
        " tru",
        "e "
      ],
      [
        "pro",
        "ble"
      ],
      [
        " friends",
        "hip"
      ],
      [
        "of",
        "f"
      ],
      [
        "shar",
        "e "
      ],
      [
        "her",
        "self"
      ],
      [
        "d",
        "in"
      ],
      [
        " th",
        "ink "
      ],
      [
        "st",
        "o"
      ],
      [
        "other ",
        "creatures "
      ],
      [
        "f",
        "o"
      ],
      [
        "v",
        "y "
      ],
      [
        " ab",
        "out the "
      ],
      [
        "w",
        "ol"
      ],
      [
        "of",
        "fer"
      ],
      [
        ". ",
        "From that day on"
      ],
      [
        "st",
        "ill"
      ],
      [
        "ff",
        "al"
      ],
      [
        "urt",
        "le "
      ],
      [
        "f",
        "ind"
      ],
      [
        ". \"",
        "W"
      ],
      [
        "I'",
        "ll"
      ],
      [
        "en",
        "ce "
      ],
      [
        "ev",
        "en the "
      ],
      [
        "s",
        " t"
      ],
      [
        "d",
        "onke"
      ],
      [
        "f",
        "lo"
      ],
      [
        "squirre",
        "l "
      ],
      [
        " from",
        " the "
      ],
      [
        "f",
        "all"
      ],
      [
        "hum",
        "ming"
      ],
      [
        "it",
        "t"
      ],
      [
        "mag",
        "pi"
      ],
      [
        "g",
        "or"
      ],
      [
        " thought ",
        "for a moment"
      ],
      [
        "bri",
        "d"
      ],
      [
        "se",
        "e"
      ],
      [
        "kindnes",
        "s and "
      ],
      [
        "be",
        "cam"
      ],
      [
        "in",
        "es"
      ],
      [
        "I'",
        "ll "
      ],
      [
        "s ",
        "s"
      ],
      [
        "i",
        "li"
      ],
      [
        "bro",
        "k"
      ],
      [
        " s",
        "ea"
      ],
      [
        "friends",
        "hip"
      ],
      [
        " than",
        "k"
      ],
      [
        "racco",
        "on"
      ],
      [
        "sunny ",
        "day"
      ],
      [
        "y",
        "en"
      ],
      [
        "be",
        "t"
      ],
      [
        "d",
        "olp"
      ],
      [
        "vo",
        "ice "
      ],
      [
        "per",
        "f"
      ],
      [
        "be",
        "tter"
      ],
      [
        "j",
        "a"
      ],
      [
        "sid",
        "e"
      ],
      [
        "in",
        "ed "
      ],
      [
        "nd",
        "er"
      ],
      [
        "so",
        "on"
      ],
      [
        "t",
        "ortoise "
      ],
      [
        ", but ",
        "she "
      ],
      [
        "w",
        "ouldn't "
      ],
      [
        "carefull",
        "y"
      ],
      [
        "gras",
        "shopp"
      ],
      [
        " b",
        "a"
      ],
      [
        "cle",
        "ver"
      ],
      [
        "t",
        "emp"
      ],
      [
        "gru",
        "mp"
      ],
      [
        "o",
        ", "
      ],
      [
        "grate",
        "ful"
      ],
      [
        "liv",
        "ed in a "
      ],
      [
        "gi",
        "raff"
      ],
      [
        "ed",
        " and"
      ],
      [
        "e the best ",
        "of"
      ],
      [
        "on",
        "ce "
      ],
      [
        " a",
        "re "
      ],
      [
        "st",
        "u"
      ],
      [
        "h",
        "is"
      ],
      [
        "liv",
        "ed a"
      ],
      [
        "d",
        "on't "
      ],
      [
        "p",
        "ow"
      ],
      [
        "c",
        "elebra"
      ],
      [
        "proble",
        "m"
      ],
      [
        "when ",
        "we "
      ],
      [
        "on",
        "d "
      ],
      [
        "villager",
        "s "
      ],
      [
        "bea",
        "u"
      ],
      [
        " from",
        " "
      ],
      [
        "re",
        "inde"
      ],
      [
        "ocea",
        "n"
      ],
      [
        "car",
        "din"
      ],
      [
        "c",
        "ouldn't "
      ],
      [
        "gu",
        "t"
      ],
      [
        "et",
        "a"
      ],
      [
        "con",
        "t"
      ],
      [
        ". A",
        "s they "
      ],
      [
        "ch",
        "ed the "
      ],
      [
        "it ",
        "was "
      ],
      [
        "h",
        "edgeho"
      ],
      [
        "ne",
        "x"
      ],
      [
        "kno",
        "ck"
      ],
      [
        "en",
        "ough"
      ],
      [
        "up",
        " "
      ],
      [
        "fa",
        "ir"
      ],
      [
        "ed, ",
        "know"
      ],
      [
        "a",
        "tion"
      ],
      [
        " then ",
        "on"
      ],
      [
        "ju",
        "icy "
      ],
      [
        " d",
        "idn't "
      ],
      [
        "vis",
        "it"
      ],
      [
        "Wh",
        "y are "
      ],
      [
        "big",
        ", "
      ],
      [
        "surpri",
        "s"
      ],
      [
        " c",
        "om"
      ],
      [
        "bri",
        "ght "
      ],
      [
        "nt",
        "a"
      ],
      [
        "oft",
        "en"
      ],
      [
        "beet",
        "le "
      ],
      [
        "pl",
        "an"
      ],
      [
        "eta",
        "h"
      ],
      [
        "er",
        "'s "
      ],
      [
        "re",
        "sp"
      ],
      [
        "bu",
        "ffal"
      ],
      [
        "f",
        "ra"
      ],
      [
        "or",
        " "
      ],
      [
        "f",
        "el"
      ],
      [
        "on",
        "der"
      ],
      [
        "in",
        "s"
      ],
      [
        "sparkl",
        "ing "
      ],
      [
        "pla",
        "ty"
      ],
      [
        "wor",
        "ri"
      ],
      [
        "ev",
        "ous "
      ],
      [
        ". A",
        "nd"
      ],
      [
        "strong",
        " w"
      ],
      [
        " s",
        "ha"
      ],
      [
        "k",
        "oal"
      ],
      [
        "er",
        "ce "
      ],
      [
        "es",
        ". The "
      ],
      [
        "ro",
        "ll"
      ],
      [
        ".\n\n",
        "T"
      ],
      [
        "ot",
        "a"
      ],
      [
        "bea",
        "ver "
      ],
      [
        " trea",
        "sure "
      ],
      [
        "on",
        "est "
      ],
      [
        "less",
        "on"
      ],
      [
        "g",
        "old"
      ],
      [
        "op",
        "ota"
      ],
      [
        "pp",
        "opota"
      ],
      [
        "sad",
        " and "
      ],
      [
        " as ",
        "she "
      ],
      [
        "wood",
        "peck"
      ],
      [
        "sha",
        "m"
      ],
      [
        ", and ",
        "she "
      ],
      [
        "cor",
        "mor"
      ],
      [
        "you",
        "'re "
      ],
      [
        "ing",
        " for "
      ],
      [
        "a",
        "ir"
      ],
      [
        "er",
        " and "
      ],
      [
        "oc",
        "er"
      ],
      [
        "hin",
        "ocer"
      ],
      [
        "f",
        "rom that day on"
      ],
      [
        "f",
        "ly"
      ],
      [
        " tim",
        "e"
      ],
      [
        " and",
        " a "
      ],
      [
        "met",
        " a "
      ],
      [
        "v",
        "ent"
      ],
      [
        "cro",
        "codi"
      ],
      [
        "fir",
        "st"
      ],
      [
        "be",
        "li"
      ],
      [
        "ev",
        "en"
      ],
      [
        "re",
        "ed"
      ],
      [
        ". ",
        "I "
      ],
      [
        "b",
        "la"
      ],
      [
        "an",
        "ga"
      ],
      [
        "rea",
        "t "
      ],
      [
        "villa",
        "ge"
      ],
      [
        "el",
        "y "
      ],
      [
        "le",
        "op"
      ],
      [
        "po",
        "li"
      ],
      [
        "Bu",
        "t"
      ],
      [
        "e",
        "'s "
      ],
      [
        "de",
        "st"
      ],
      [
        "ca",
        "ve "
      ],
      [
        " t",
        "ree"
      ],
      [
        "o",
        "stri"
      ],
      [
        ". A",
        "nd "
      ],
      [
        "sh",
        "ri"
      ],
      [
        "m",
        "un"
      ],
      [
        "z",
        "ebra"
      ],
      [
        "famil",
        "y "
      ],
      [
        "id",
        "e "
      ],
      [
        "pea",
        "ce"
      ],
      [
        "wi",
        "ll "
      ],
      [
        "w",
        "ha"
      ],
      [
        "wat",
        "er "
      ],
      [
        "w",
        "hat"
      ],
      [
        "oran",
        "gut"
      ],
      [
        "n",
        "ect"
      ],
      [
        "of",
        " a "
      ],
      [
        "f",
        "isher"
      ],
      [
        "ti",
        "on "
      ],
      [
        " t",
        "ra"
      ],
      [
        "es",
        ", "
      ],
      [
        "didn't ",
        "know"
      ],
      [
        "tic",
        " "
      ],
      [
        ".\n\nOne day",
        ", the "
      ],
      [
        " ",
        "of the "
      ],
      [
        "g",
        "oose "
      ],
      [
        " f",
        "ind "
      ],
      [
        "y",
        ". The "
      ],
      [
        " di",
        "ffer"
      ],
      [
        "now",
        " "
      ],
      [
        "ree",
        "f"
      ],
      [
        "hidd",
        "en"
      ],
      [
        "oo",
        "per"
      ],
      [
        "**\n\n",
        "In"
      ],
      [
        "ing",
        ", "
      ],
      [
        "ne",
        "ed "
      ],
      [
        "hum",
        "ble "
      ],
      [
        "scor",
        "pi"
      ],
      [
        "pu",
        "ma"
      ],
      [
        "sa",
        "v"
      ],
      [
        "ma",
        "z"
      ],
      [
        "lago",
        "on"
      ],
      [
        "s",
        "ome "
      ],
      [
        "lo",
        "b"
      ],
      [
        "mischi",
        "evous "
      ],
      [
        "she",
        "ll"
      ],
      [
        "o",
        "se "
      ],
      [
        "mak",
        "es "
      ],
      [
        "ge",
        "ck"
      ],
      [
        "a",
        "s"
      ],
      [
        "f",
        "in"
      ],
      [
        "on",
        "d"
      ],
      [
        "e",
        "'re "
      ],
      [
        "ra",
        "in"
      ],
      [
        "cli",
        "ff"
      ],
      [
        "rea",
        "k"
      ],
      [
        "ing ",
        "in the "
      ],
      [
        "e t",
        "ogether"
      ],
      [
        "ja",
        "gu"
      ],
      [
        "f",
        "ood "
      ],
      [
        "an",
        "ce"
      ],
      [
        "st",
        "ood "
      ],
      [
        " f",
        "ear"
      ],
      [
        "loved to ",
        "explor"
      ],
      [
        "realiz",
        "ed "
      ],
      [
        "s",
        "ing"
      ],
      [
        "is",
        " the "
      ],
      [
        "hi",
        "m "
      ],
      [
        "c",
        "ra"
      ],
      [
        "lik",
        "e the "
      ],
      [
        "seagu",
        "ll "
      ],
      [
        "stumbled up",
        "on a "
      ],
      [
        "hi",
        "ppopota"
      ],
      [
        "op",
        "en"
      ],
      [
        "ed by",
        " the "
      ],
      [
        "sid",
        "e "
      ],
      [
        "streng",
        "th"
      ],
      [
        "re",
        "v"
      ],
      [
        "pe",
        "li"
      ],
      [
        "i",
        "on "
      ],
      [
        "saw",
        " "
      ],
      [
        "pla",
        "ce "
      ],
      [
        "mea",
        "d"
      ],
      [
        "neak",
        "y "
      ],
      [
        "h",
        "yen"
      ],
      [
        "ge",
        "t"
      ],
      [
        "perched ",
        "on a "
      ],
      [
        "'",
        "d "
      ],
      [
        "r",
        "in"
      ],
      [
        "v",
        "ult"
      ],
      [
        "g",
        "ood"
      ],
      [
        "ba",
        "sk"
      ],
      [
        "el",
        "d"
      ],
      [
        "e t",
        "oo"
      ],
      [
        "mel",
        "e"
      ],
      [
        "sh",
        "ow"
      ],
      [
        "k",
        "anga"
      ],
      [
        "fi",
        "ref"
      ],
      [
        " sa",
        "w"
      ],
      [
        " ang",
        "ry"
      ],
      [
        "ed ",
        "in the "
      ],
      [
        " tru",
        "st"
      ],
      [
        "listened ",
        "carefully"
      ],
      [
        "cry",
        "stal"
      ],
      [
        "d",
        "ig"
      ],
      [
        ".\"",
        "\n</story>"
      ],
      [
        "c",
        "es "
      ],
      [
        "becam",
        "e the best of"
      ],
      [
        "bu",
        "t "
      ],
      [
        "start",
        "ed to"
      ],
      [
        "in",
        "u"
      ],
      [
        "ree",
        "z"
      ],
      [
        "r",
        "ust "
      ],
      [
        "he",
        "sit"
      ],
      [
        " try",
        "ing to "
      ],
      [
        "cal",
        "m"
      ],
      [
        "dec",
        "e"
      ],
      [
        "ft",
        "y "
      ],
      [
        "gre",
        "en"
      ],
      [
        " a",
        "d"
      ],
      [
        "m",
        "oose "
      ],
      [
        "resp",
        "ect"
      ],
      [
        "pass",
        "ion"
      ],
      [
        "realiz",
        "ed that the "
      ],
      [
        "stor",
        "y "
      ],
      [
        "gard",
        "en "
      ],
      [
        "s",
        ", and the "
      ],
      [
        "hor",
        "se "
      ],
      [
        "n",
        "u"
      ],
      [
        "la",
        "im"
      ],
      [
        "ear",
        "n"
      ],
      [
        "crab",
        " "
      ],
      [
        "mor",
        "e"
      ],
      [
        "rabb",
        "its "
      ],
      [
        "?\" she ",
        "ask"
      ],
      [
        "coll",
        "ect"
      ],
      [
        "r",
        "hinocer"
      ],
      [
        "de",
        "li"
      ],
      [
        "in",
        "stea"
      ],
      [
        "c",
        "lear"
      ],
      [
        " the",
        "y a"
      ],
      [
        "car",
        "e "
      ],
      [
        "per",
        "sever"
      ],
      [
        "hear",
        "d"
      ],
      [
        "man",
        "y "
      ],
      [
        "for",
        "tre"
      ],
      [
        "dy",
        "bu"
      ],
      [
        "si",
        "ve "
      ],
      [
        "orto",
        "is"
      ],
      [
        "rea",
        "sure "
      ],
      [
        "racco",
        "on "
      ],
      [
        "S",
        "he "
      ],
      [
        "word",
        "s "
      ],
      [
        "beh",
        "ind a "
      ],
      [
        "che",
        "etah"
      ],
      [
        "e to",
        " the "
      ],
      [
        "ed ",
        "for "
      ],
      [
        " to ",
        "do"
      ],
      [
        "et",
        "er"
      ],
      [
        "some",
        "thing "
      ],
      [
        " s",
        "ome"
      ],
      [
        "grump",
        "y "
      ],
      [
        "imp",
        "ort"
      ],
      [
        "w",
        "o "
      ],
      [
        ". \"",
        "I"
      ],
      [
        "monke",
        "y"
      ],
      [
        " a",
        "gre"
      ],
      [
        "parro",
        "t "
      ],
      [
        "sh",
        "out"
      ],
      [
        "loy",
        "al"
      ],
      [
        "wa",
        "sp"
      ],
      [
        "us",
        "ed "
      ],
      [
        "st",
        "e"
      ],
      [
        "B",
        "e"
      ],
      [
        ". ",
        "In"
      ],
      [
        "ri",
        "ght "
      ],
      [
        ", and",
        " together"
      ],
      [
        "began",
        " to s"
      ],
      [
        "look",
        "ed up"
      ],
      [
        "le",
        ", "
      ],
      [
        "ind",
        " the "
      ],
      [
        "creature",
        "s"
      ],
      [
        "ne",
        "ver"
      ],
      [
        "go",
        "t "
      ],
      [
        "m",
        "ar"
      ],
      [
        "bad",
        "ger"
      ],
      [
        "of",
        " b"
      ],
      [
        "work",
        "ed "
      ],
      [
        "I'm s",
        "or"
      ],
      [
        "flower",
        "s "
      ],
      [
        " s",
        "o"
      ],
      [
        "l",
        "li"
      ],
      [
        " the t",
        "ruth"
      ],
      [
        "mi",
        "ght "
      ],
      [
        "mou",
        "nta"
      ],
      [
        "gent",
        "ly "
      ],
      [
        "hung",
        "ry"
      ],
      [
        "lived",
        ". She "
      ],
      [
        "li",
        "ght "
      ],
      [
        ",",
        " t"
      ],
      [
        "ti",
        "mes"
      ],
      [
        "le",
        "c"
      ],
      [
        " th",
        "ose "
      ],
      [
        "f",
        "ur"
      ],
      [
        "h",
        "un"
      ],
      [
        "s",
        "ong"
      ],
      [
        "had be",
        "en"
      ],
      [
        "bad",
        "ger "
      ],
      [
        "ref",
        "us"
      ],
      [
        "ri",
        "end "
      ],
      [
        "ni",
        "ght"
      ],
      [
        "sa",
        "fe"
      ],
      [
        "bear",
        " "
      ],
      [
        "know",
        "led"
      ],
      [
        "of",
        "t "
      ],
      [
        "help",
        "ed the "
      ],
      [
        "exc",
        "it"
      ],
      [
        " a s",
        "m"
      ],
      [
        "sur",
        "round"
      ],
      [
        "v",
        "or"
      ],
      [
        "mer",
        "ma"
      ],
      [
        " t",
        "all"
      ],
      [
        "ru",
        "s "
      ],
      [
        "became ",
        "a "
      ],
      [
        "ing ",
        "her "
      ],
      [
        "Q",
        "u"
      ],
      [
        "s",
        "s "
      ],
      [
        "ref",
        "lec"
      ],
      [
        "fi",
        "erce "
      ],
      [
        "gra",
        "ss"
      ],
      [
        "l",
        "um"
      ],
      [
        "magpi",
        "e "
      ],
      [
        "I d",
        "on't "
      ],
      [
        "her",
        " friend"
      ],
      [
        "ed",
        ". She "
      ],
      [
        " thought",
        ", \""
      ],
      [
        "old",
        " t"
      ],
      [
        "sha",
        "red "
      ],
      [
        "c",
        "lo"
      ],
      [
        "j",
        "ung"
      ],
      [
        "s",
        "and"
      ],
      [
        "rabbit",
        "'s "
      ],
      [
        "w",
        "onder"
      ],
      [
        "m",
        "bl"
      ],
      [
        "la",
        "dybu"
      ],
      [
        "hone",
        "st"
      ],
      [
        "t",
        "ruth"
      ],
      [
        "s",
        "hip"
      ],
      [
        " to",
        "gether "
      ],
      [
        "pengu",
        "in"
      ],
      [
        "giraff",
        "e "
      ],
      [
        "g",
        "gest"
      ],
      [
        "id",
        "n't"
      ],
      [
        "curi",
        "ous "
      ],
      [
        "'",
        " "
      ],
      [
        "wa",
        "nder"
      ],
      [
        "wis",
        "dom"
      ],
      [
        ", ",
        "little "
      ],
      [
        "ic",
        " "
      ],
      [
        "ou",
        "s"
      ],
      [
        " ab",
        "o"
      ],
      [
        "mo",
        "le "
      ],
      [
        "st",
        "opp"
      ],
      [
        "m",
        "ark"
      ],
      [
        "o",
        "as"
      ],
      [
        "cha",
        "ll"
      ],
      [
        "e",
        ", a "
      ],
      [
        "crocodi",
        "le "
      ],
      [
        "hur",
        "t "
      ],
      [
        "g",
        "reat "
      ],
      [
        " too",
        "k"
      ],
      [
        "s",
        "s the "
      ],
      [
        "s ",
        "</moral>\n<story>\nIn a "
      ],
      [
        ", ",
        "not "
      ],
      [
        " t",
        "urn"
      ],
      [
        "pass",
        "ed, the "
      ],
      [
        "nect",
        "ar"
      ],
      [
        "ep",
        "end"
      ],
      [
        "i",
        "ce"
      ],
      [
        "l",
        "and "
      ],
      [
        "fla",
        "ming"
      ],
      [
        " d",
        "o"
      ],
      [
        "mista",
        "ke"
      ],
      [
        " smil",
        "ed and said, \""
      ],
      [
        "mead",
        "ow"
      ],
      [
        " d",
        "e"
      ],
      [
        " tea",
        "m"
      ],
      [
        " tim",
        "e "
      ],
      [
        "o",
        "ver "
      ],
      [
        "val",
        "le"
      ],
      [
        "t",
        "ed "
      ],
      [
        "b",
        "reez"
      ],
      [
        "S",
        "har"
      ],
      [
        "build",
        " a "
      ],
      [
        " sh",
        "one "
      ],
      [
        "n",
        "at"
      ],
      [
        "el",
        "y"
      ],
      [
        "p",
        "ear"
      ],
      [
        " sh",
        "ould "
      ],
      [
        "her",
        " friends "
      ],
      [
        "it",
        "ed "
      ],
      [
        "ll",
        "ow"
      ],
      [
        "F",
        "ox"
      ],
      [
        "fa",
        "st"
      ],
      [
        "happy",
        " and "
      ],
      [
        "oo",
        "l"
      ],
      [
        "Why ",
        "do "
      ],
      [
        "ca",
        "t "
      ],
      [
        "i",
        "es"
      ],
      [
        "er",
        "ri"
      ],
      [
        "li",
        "on"
      ],
      [
        "ed",
        " them"
      ],
      [
        "ir",
        "d"
      ],
      [
        "octo",
        "pus"
      ],
      [
        "kindnes",
        "s"
      ],
      [
        "p",
        "an"
      ],
      [
        "cha",
        "mele"
      ],
      [
        "st",
        "ood"
      ],
      [
        "oft",
        "en "
      ],
      [
        "o",
        "s "
      ],
      [
        " ar",
        "gu"
      ],
      [
        "ga",
        "ve "
      ],
      [
        "Qu",
        "i"
      ],
      [
        "sea",
        "l"
      ],
      [
        "M",
        "ay"
      ],
      [
        "s",
        "y"
      ],
      [
        ",\" ",
        "he "
      ],
      [
        "d",
        "ark"
      ],
      [
        "rom",
        " then on"
      ],
      [
        ", but ",
        "it "
      ],
      [
        "wal",
        "rus "
      ],
      [
        "pro",
        "v"
      ],
      [
        "</char>\n<moral>",
        " c"
      ],
      [
        "ing",
        ". The "
      ],
      [
        "lau",
        "ght"
      ],
      [
        "smil",
        "ed and said, \""
      ],
      [
        "can",
        " be "
      ],
      [
        "H",
        "a"
      ],
      [
        "</char>\n<moral>",
        " s"
      ],
      [
        "conf",
        "us"
      ],
      [
        "ch",
        "o"
      ],
      [
        " sh",
        "ow "
      ],
      [
        "unn",
        "ing "
      ],
      [
        "When ",
        "we "
      ],
      [
        "near",
        "by"
      ],
      [
        "was",
        " a"
      ],
      [
        "s",
        "earch"
      ],
      [
        "ca",
        "ver"
      ],
      [
        "n",
        "est "
      ],
      [
        "l",
        "ed "
      ],
      [
        " sh",
        "iny "
      ],
      [
        "spo",
        "tt"
      ],
      [
        " to f",
        "ind "
      ],
      [
        "butterf",
        "ly"
      ],
      [
        "Just",
        " then"
      ],
      [
        "proud ",
        "of "
      ],
      [
        "him",
        "self"
      ],
      [
        "fu",
        "ll "
      ],
      [
        "ca",
        "u"
      ],
      [
        "looked at ",
        "each other"
      ],
      [
        "working",
        " together"
      ],
      [
        "had",
        " a "
      ],
      [
        "L",
        "itt"
      ],
      [
        "is",
        "land"
      ],
      [
        ". \"",
        "T"
      ],
      [
        "en",
        "ce"
      ],
      [
        "ear",
        " "
      ],
      [
        "De",
        "ep "
      ],
      [
        "ec",
        "ret"
      ],
      [
        "li",
        "es "
      ],
      [
        "ser",
        "v"
      ],
      [
        "Litt",
        "le "
      ],
      [
        "help ",
        "each other"
      ],
      [
        "re",
        "spec"
      ],
      [
        "re",
        "st"
      ],
      [
        "rea",
        "m"
      ],
      [
        "r",
        "un"
      ],
      [
        "wa",
        "st"
      ],
      [
        "cli",
        "mb"
      ],
      [
        "p",
        "ic"
      ],
      [
        "magi",
        "c"
      ],
      [
        "re",
        "ci"
      ],
      [
        " f",
        "eel"
      ],
      [
        "w",
        "o"
      ],
      [
        "in ",
        "her "
      ],
      [
        "s",
        ", the "
      ],
      [
        "of",
        " all"
      ],
      [
        "beli",
        "ev"
      ],
      [
        "W",
        "hat "
      ],
      [
        "promis",
        "ed to "
      ],
      [
        "was",
        " too "
      ],
      [
        "go",
        "at"
      ],
      [
        "ha",
        "nd"
      ],
      [
        " t",
        "rouble"
      ],
      [
        "platy",
        "pus "
      ],
      [
        "ke",
        "ep "
      ],
      [
        "mistak",
        "es"
      ],
      [
        "i",
        "ve "
      ],
      [
        ". \"",
        "We "
      ],
      [
        "thou",
        "ght "
      ],
      [
        "eter",
        "min"
      ],
      [
        "h",
        "u"
      ],
      [
        " to",
        " a "
      ],
      [
        "hone",
        "sty "
      ],
      [
        "donke",
        "y "
      ],
      [
        "la",
        "zy "
      ],
      [
        " d",
        "ec"
      ],
      [
        "s",
        "ol"
      ],
      [
        "ou",
        "nd "
      ],
      [
        " c",
        "on"
      ],
      [
        "bo",
        "ast"
      ],
      [
        "nex",
        "t "
      ],
      [
        "ben",
        "ea"
      ],
      [
        "s",
        "incer"
      ],
      [
        "mak",
        "ing "
      ],
      [
        "wise ",
        "old t"
      ],
      [
        " d",
        "own"
      ],
      [
        "os",
        "ity "
      ],
      [
        " ba",
        "ck"
      ],
      [
        "ed ",
        "down"
      ],
      [
        "f",
        "lu"
      ],
      [
        "f",
        "ind "
      ],
      [
        " b",
        "ea"
      ],
      [
        "ed",
        " their "
      ],
      [
        "s",
        " a "
      ],
      [
        "mu",
        "s "
      ],
      [
        "'",
        "ll"
      ],
      [
        "id",
        "ent"
      ],
      [
        "color",
        "ful"
      ],
      [
        "pow",
        "er"
      ],
      [
        "pl",
        "ant"
      ],
      [
        "crick",
        "et "
      ],
      [
        "jo",
        "in"
      ],
      [
        "ft",
        "er"
      ],
      [
        "villa",
        "ge "
      ],
      [
        ", ",
        "her "
      ],
      [
        "cont",
        "inu"
      ],
      [
        "fru",
        "it"
      ],
      [
        "vult",
        "ure "
      ],
      [
        "'",
        "ll "
      ],
      [
        "a",
        "k "
      ],
      [
        "k",
        "ept "
      ],
      [
        "wh",
        "en the "
      ],
      [
        "ing",
        ", the "
      ],
      [
        "I d",
        "idn't "
      ],
      [
        "lea",
        "v"
      ],
      [
        " for",
        " the "
      ],
      [
        "br",
        "ings "
      ],
      [
        "bird",
        "s"
      ],
      [
        "cha",
        "nt"
      ],
      [
        "you",
        "n"
      ],
      [
        "sh",
        "or"
      ],
      [
        "le",
        "t "
      ],
      [
        "m",
        "us"
      ],
      [
        "ooper",
        "a"
      ],
      [
        "ra",
        "t"
      ],
      [
        "b",
        "rou"
      ],
      [
        "O",
        "w"
      ],
      [
        "di",
        "st"
      ],
      [
        "can ",
        "make "
      ],
      [
        "b",
        "ook"
      ],
      [
        "du",
        "ck"
      ],
      [
        "g",
        "round"
      ],
      [
        "c",
        "lum"
      ],
      [
        "ri",
        "v"
      ],
      [
        "happ",
        "en"
      ],
      [
        "even ",
        "more "
      ],
      [
        "their",
        " "
      ],
      [
        "swa",
        "mp"
      ],
      [
        "cormor",
        "ant "
      ],
      [
        "k",
        "ing"
      ],
      [
        "vor",
        "ite "
      ],
      [
        "se",
        "em"
      ],
      [
        "W",
        "ise "
      ],
      [
        "spec",
        "ial"
      ],
      [
        "y",
        " t"
      ],
      [
        "c",
        "all"
      ],
      [
        "la",
        "w"
      ],
      [
        "it",
        "u"
      ],
      [
        "sun",
        " "
      ],
      [
        "one ",
        "day"
      ],
      [
        "d",
        "ar"
      ],
      [
        "s",
        "wim"
      ],
      [
        "himmer",
        "ing "
      ],
      [
        "ow",
        "ever"
      ],
      [
        "my",
        "self"
      ],
      [
        "bu",
        "zz"
      ],
      [
        "humming",
        "bird "
      ],
      [
        "ed ",
        "it"
      ],
      [
        " to ",
        "make "
      ],
      [
        " together",
        ", "
      ],
      [
        "bloo",
        "m"
      ],
      [
        " app",
        "roa"
      ],
      [
        " sp",
        "arkl"
      ],
      [
        "i",
        "ght"
      ],
      [
        "moral",
        " of the "
      ],
      [
        "gent",
        "ly"
      ],
      [
        " app",
        "ear"
      ],
      [
        "sea",
        "l "
      ],
      [
        "knowled",
        "ge "
      ],
      [
        "hum",
        "ili"
      ],
      [
        "**\n\nIn",
        " a "
      ],
      [
        "k ",
        "you"
      ],
      [
        "wh",
        "y "
      ],
      [
        "wha",
        "le "
      ],
      [
        "ed ",
        "him"
      ],
      [
        "gh",
        "t the "
      ],
      [
        "ro",
        "t"
      ],
      [
        "m",
        "er "
      ],
      [
        "in",
        "v"
      ],
      [
        " to",
        " sa"
      ],
      [
        "wor",
        "m"
      ],
      [
        "ste",
        "pp"
      ],
      [
        "bet",
        "we"
      ],
      [
        "hippopota",
        "mus "
      ],
      [
        "l",
        "ing "
      ],
      [
        "fill",
        "ed with"
      ],
      [
        "water",
        "fall"
      ],
      [
        "ed in",
        "to the "
      ],
      [
        "May",
        "be "
      ],
      [
        "</moral>\n<story>\nOn",
        " a "
      ],
      [
        "hea",
        "vy "
      ],
      [
        "pe",
        "b"
      ],
      [
        "chan",
        "ge "
      ],
      [
        "respec",
        "t "
      ],
      [
        " t",
        "ell"
      ],
      [
        ". ",
        "E"
      ],
      [
        "help ",
        "you"
      ],
      [
        " s",
        "u"
      ],
      [
        "m",
        "p "
      ],
      [
        " to ",
        "help"
      ],
      [
        "lived a",
        "mong the "
      ],
      [
        "cal",
        "m "
      ],
      [
        "befor",
        "e"
      ],
      [
        "prot",
        "ect"
      ],
      [
        "D",
        "ay"
      ],
      [
        "wor",
        "m "
      ],
      [
        "fro",
        "g"
      ],
      [
        ".\"\n\n",
        "From that day on, the "
      ],
      [
        "ed ",
        "with the "
      ],
      [
        "com",
        "mun"
      ],
      [
        " fa",
        "mil"
      ],
      [
        "ed",
        " their"
      ],
      [
        "brok",
        "en"
      ],
      [
        ". \"",
        "I "
      ],
      [
        "wi",
        "ft "
      ],
      [
        "she ",
        "had "
      ],
      [
        "s",
        "now"
      ],
      [
        "har",
        "d "
      ],
      [
        "unn",
        "el"
      ],
      [
        " acc",
        "ept"
      ],
      [
        "ign",
        "or"
      ],
      [
        " w",
        "hat"
      ],
      [
        "his ",
        "friends"
      ],
      [
        ", and",
        " that "
      ],
      [
        ", and",
        " a "
      ],
      [
        "was ",
        "known for "
      ],
      [
        "sp",
        "r"
      ],
      [
        "moral of the ",
        "story "
      ],
      [
        "leop",
        "ard "
      ],
      [
        "gla",
        "d "
      ],
      [
        "ed, know",
        "ing that "
      ],
      [
        "sa",
        "id "
      ],
      [
        "a",
        "d"
      ],
      [
        "ru",
        "mor"
      ],
      [
        "was",
        "n't "
      ],
      [
        "haw",
        "k"
      ],
      [
        ". One day",
        ", while "
      ],
      [
        "c",
        "loud"
      ],
      [
        "lo",
        "st"
      ],
      [
        "be",
        "long"
      ],
      [
        "became the best of",
        " friends"
      ],
      [
        "ston",
        "es"
      ],
      [
        "li",
        "on "
      ],
      [
        " sp",
        "ec"
      ],
      [
        "ing",
        " them"
      ],
      [
        "ba",
        "t "
      ],
      [
        "berri",
        "es "
      ],
      [
        "St",
        "rong"
      ],
      [
        "mark",
        "et"
      ],
      [
        "fer",
        "ret "
      ],
      [
        "nes",
        "s"
      ],
      [
        " f",
        "eather"
      ],
      [
        "sk",
        "un"
      ],
      [
        "an",
        "imal"
      ],
      [
        "re",
        "e "
      ],
      [
        "celebra",
        "t"
      ],
      [
        "rea",
        "d "
      ],
      [
        "harmon",
        "y"
      ],
      [
        "beau",
        "ty "
      ],
      [
        "re",
        "gre"
      ],
      [
        "Wh",
        "en the "
      ],
      [
        " t",
        "rust "
      ],
      [
        "saf",
        "e "
      ],
      [
        "mor",
        "e t"
      ],
      [
        "sp",
        "i"
      ],
      [
        "owl",
        "'s "
      ],
      [
        "rhinocer",
        "os "
      ],
      [
        "ma",
        "d"
      ],
      [
        "P",
        "er"
      ],
      [
        "i",
        "al "
      ],
      [
        "l",
        "on"
      ],
      [
        "bu",
        "ll"
      ],
      [
        "g",
        "l"
      ],
      [
        " they ",
        "were "
      ],
      [
        "de",
        "er "
      ],
      [
        " sh",
        "ow"
      ],
      [
        "us",
        "e "
      ],
      [
        "was ",
        "filled with "
      ],
      [
        "hi",
        "p "
      ],
      [
        "em",
        "path"
      ],
      [
        "for",
        "est "
      ],
      [
        "moral of the story ",
        "is"
      ],
      [
        "sto",
        "at "
      ],
      [
        "y",
        "ak "
      ],
      [
        "crow",
        " "
      ],
      [
        "ab",
        "b"
      ],
      [
        "s",
        "weet "
      ],
      [
        "ing ",
        "with "
      ],
      [
        "er",
        "s "
      ],
      [
        "rou",
        "nd "
      ],
      [
        "R",
        "abb"
      ],
      [
        " swa",
        "m"
      ],
      [
        "valu",
        "able "
      ],
      [
        "new",
        "found "
      ],
      [
        "se",
        ", "
      ],
      [
        "ed",
        "i"
      ],
      [
        "pu",
        "l"
      ],
      [
        "by",
        " the "
      ],
      [
        "began",
        " to"
      ],
      [
        "h",
        "op"
      ],
      [
        "befor",
        "e "
      ],
      [
        " app",
        "reci"
      ],
      [
        "found",
        " a "
      ],
      [
        "happ",
        "ines"
      ],
      [
        "y",
        "'s "
      ],
      [
        ". The",
        "y"
      ],
      [
        "each other",
        "'s "
      ],
      [
        "harmon",
        "y "
      ],
      [
        "we",
        "et"
      ],
      [
        "Just then",
        ", a "
      ],
      [
        " an",
        "imals "
      ],
      [
        "pengu",
        "in "
      ],
      [
        "b",
        "e the "
      ],
      [
        " f",
        "ood "
      ],
      [
        "dis",
        "c"
      ],
      [
        "grou",
        "p"
      ],
      [
        " th",
        "ings"
      ],
      [
        "l",
        "ush"
      ],
      [
        "fisher",
        "man"
      ],
      [
        ", but ",
        "he "
      ],
      [
        "w",
        "ings "
      ],
      [
        "cast",
        "le "
      ],
      [
        "other animal",
        "s"
      ],
      [
        "oo",
        "p"
      ],
      [
        "w",
        "ing"
      ],
      [
        "caver",
        "n"
      ],
      [
        "st",
        "ream"
      ],
      [
        "i",
        "es "
      ],
      [
        "s a",
        "re "
      ],
      [
        "c",
        "on "
      ],
      [
        "liv",
        "ed a "
      ],
      [
        "far",
        "mer"
      ],
      [
        "lo",
        "st "
      ],
      [
        "al",
        "ly"
      ],
      [
        ", ",
        "saying, \""
      ],
      [
        "give ",
        "up"
      ],
      [
        "w",
        "eak"
      ],
      [
        " se",
        "e "
      ],
      [
        "s",
        "li"
      ],
      [
        " then",
        " said, \""
      ],
      [
        "near",
        " the "
      ],
      [
        "ca",
        "uti"
      ],
      [
        "en",
        "joy"
      ],
      [
        "A",
        "nd "
      ],
      [
        "reinde",
        "er "
      ],
      [
        "quick",
        "ly "
      ],
      [
        "the",
        "y "
      ],
      [
        "mak",
        "e the "
      ],
      [
        "c",
        "lea"
      ],
      [
        "looked ",
        "down"
      ],
      [
        "–",
        " "
      ],
      [
        " shone ",
        "bright"
      ],
      [
        "d",
        "ust"
      ],
      [
        "hesit",
        "at"
      ],
      [
        "wat",
        "ched "
      ],
      [
        "wel",
        "com"
      ],
      [
        "a",
        "g"
      ],
      [
        "lea",
        "ves"
      ],
      [
        "'",
        "r"
      ],
      [
        "grasshopp",
        "er "
      ],
      [
        "Why are ",
        "you"
      ],
      [
        "go",
        "t"
      ],
      [
        "y",
        " the "
      ],
      [
        ".\n\nOne day",
        ", while the "
      ],
      [
        " t",
        "e"
      ],
      [
        "ed a",
        "t the "
      ],
      [
        "mo",
        "v"
      ],
      [
        "ea",
        "k "
      ],
      [
        "buffal",
        "o "
      ],
      [
        ",\" she ",
        "said. \""
      ],
      [
        "fe",
        "sti"
      ],
      [
        "spid",
        "er "
      ],
      [
        "loved to",
        " s"
      ],
      [
        "ho",
        "t "
      ],
      [
        " to ",
        "help "
      ],
      [
        "knock",
        "ed "
      ],
      [
        "s ",
        "of the "
      ],
      [
        ",",
        " think"
      ],
      [
        "ru",
        "d"
      ],
      [
        "shar",
        "k"
      ],
      [
        "N",
        "o, "
      ],
      [
        "pul",
        "sive "
      ],
      [
        "pati",
        "ent "
      ],
      [
        "T",
        "he"
      ],
      [
        "A",
        " "
      ],
      [
        "swa",
        "n"
      ],
      [
        "roa",
        "m"
      ],
      [
        "lived in a ",
        "cozy "
      ],
      [
        "ru",
        "in"
      ],
      [
        "mel",
        "o"
      ],
      [
        "he",
        "ll"
      ],
      [
        "litt",
        "er"
      ],
      [
        "sh",
        " "
      ],
      [
        "began",
        " to f"
      ],
      [
        "s",
        "en"
      ],
      [
        "ar",
        "e "
      ],
      [
        "strong",
        " and "
      ],
      [
        ", we ",
        "can"
      ],
      [
        "wa",
        "n"
      ],
      [
        "ed ",
        "out"
      ],
      [
        "ed a",
        "way"
      ],
      [
        "loy",
        "al "
      ],
      [
        "lea",
        "der"
      ],
      [
        " that",
        "'s "
      ],
      [
        "er",
        ", "
      ],
      [
        "ra",
        "y"
      ],
      [
        "deser",
        "t"
      ],
      [
        ". And",
        " the "
      ],
      [
        "I",
        " can"
      ],
      [
        "ill",
        "a "
      ],
      [
        "pear",
        "l"
      ],
      [
        "gold",
        "en "
      ],
      [
        " s",
        "ur"
      ],
      [
        "la",
        "ke"
      ],
      [
        ". ",
        "C"
      ],
      [
        "d",
        "etermin"
      ],
      [
        "ro",
        "o "
      ],
      [
        "instea",
        "d "
      ],
      [
        "pla",
        "c"
      ],
      [
        "um",
        "p"
      ],
      [
        "c",
        "ur"
      ],
      [
        " d",
        "is"
      ],
      [
        ",\" she ",
        "said"
      ],
      [
        "honey",
        "bee "
      ],
      [
        "explor",
        "ed the "
      ],
      [
        "know",
        " "
      ],
      [
        "fal",
        "con"
      ],
      [
        ". H",
        "er"
      ],
      [
        "we",
        "b"
      ],
      [
        "G",
        "reed"
      ],
      [
        "w",
        "here "
      ],
      [
        "mad",
        "e the "
      ],
      [
        "in",
        "to"
      ],
      [
        "rob",
        "in"
      ],
      [
        "each ",
        "other "
      ],
      [
        "hea",
        "d"
      ],
      [
        "wal",
        "k"
      ],
      [
        ", and together",
        " they "
      ],
      [
        ".\n\nOne ",
        "sunny day"
      ],
      [
        "h",
        "eal"
      ],
      [
        "work together",
        " to "
      ],
      [
        "dolp",
        "hin"
      ],
      [
        "chan",
        "g"
      ],
      [
        "g",
        "litter"
      ],
      [
        "new ",
        "path"
      ],
      [
        "s",
        "et"
      ],
      [
        "sk",
        "y"
      ],
      [
        "poli",
        "te "
      ],
      [
        "op",
        "le "
      ],
      [
        "brid",
        "ge"
      ],
      [
        " c",
        "han"
      ],
      [
        "g",
        "ood "
      ],
      [
        "lead",
        "s to "
      ],
      [
        "mor",
        "n"
      ],
      [
        "y",
        "ak"
      ],
      [
        "p",
        "ig"
      ],
      [
        "'s ",
        "eyes "
      ],
      [
        "some",
        "times"
      ],
      [
        "d",
        "un"
      ],
      [
        "bu",
        "ll "
      ],
      [
        "a",
        "ge "
      ],
      [
        " a",
        "greed"
      ],
      [
        "s",
        "ang"
      ],
      [
        "li",
        "bra"
      ],
      [
        "t ",
        "of "
      ],
      [
        "war",
        "m "
      ],
      [
        "haw",
        "k "
      ],
      [
        "sel",
        "ves"
      ],
      [
        "le",
        "ft "
      ],
      [
        "worked together",
        ", "
      ],
      [
        ". F",
        "rom then on"
      ],
      [
        " to s",
        "hare "
      ],
      [
        ". ",
        "You"
      ],
      [
        "feel",
        "ing "
      ],
      [
        "d",
        "ev"
      ],
      [
        "lob",
        "ster "
      ],
      [
        "rud",
        "ent "
      ],
      [
        " c",
        "o"
      ],
      [
        "sti",
        "ck"
      ],
      [
        "must ",
        "be "
      ],
      [
        " to s",
        "e"
      ],
      [
        "ing",
        " their"
      ],
      [
        "ood",
        "y "
      ],
      [
        "</moral>\n<story>\nIn the ",
        "heart "
      ],
      [
        "F",
        "ish"
      ],
      [
        "s",
        " that "
      ],
      [
        " w",
        "ould "
      ],
      [
        "t",
        "reasure "
      ],
      [
        " thought",
        " about"
      ],
      [
        "e to ",
        "be "
      ],
      [
        "han",
        "k you"
      ],
      [
        "qui",
        "et"
      ],
      [
        "grat",
        "itu"
      ],
      [
        "over",
        " a "
      ],
      [
        "h",
        "in "
      ],
      [
        "er",
        "n"
      ],
      [
        "ing",
        " sad"
      ],
      [
        "cor",
        "n"
      ],
      [
        "I",
        "f "
      ],
      [
        " t",
        "i"
      ],
      [
        "gor",
        "illa "
      ],
      [
        "made ",
        "a "
      ],
      [
        "roo",
        "ster "
      ],
      [
        "i",
        "th"
      ],
      [
        "'",
        "s the "
      ],
      [
        "ond ",
        "chan"
      ],
      [
        "Day",
        "s "
      ],
      [
        "R",
        "e"
      ],
      [
        "hi",
        "ll"
      ],
      [
        "inv",
        "it"
      ],
      [
        "merma",
        "id"
      ],
      [
        "s. ",
        "One day"
      ],
      [
        ", but",
        " they "
      ],
      [
        "b",
        "oth "
      ],
      [
        "can",
        "'t "
      ],
      [
        "cardin",
        "al"
      ],
      [
        "giv",
        "en"
      ],
      [
        "li",
        "fe"
      ],
      [
        " al",
        "so "
      ],
      [
        "K",
        "ind "
      ],
      [
        "dest",
        "ro"
      ],
      [
        "ing",
        " their "
      ],
      [
        "ev",
        "er "
      ],
      [
        ". H",
        "er "
      ],
      [
        " fish",
        " "
      ],
      [
        "rob",
        "in "
      ],
      [
        "geck",
        "o "
      ],
      [
        "<char>",
        " a"
      ],
      [
        " dec",
        "id"
      ],
      [
        "bo",
        "ar"
      ],
      [
        "f",
        "un"
      ],
      [
        "tion",
        "s "
      ],
      [
        "an",
        "ger"
      ],
      [
        "over",
        "come "
      ],
      [
        "of",
        " s"
      ],
      [
        "<char> a ",
        "re"
      ],
      [
        "w",
        "ent "
      ],
      [
        "import",
        "ant"
      ],
      [
        " creature",
        "s "
      ],
      [
        " from",
        " a "
      ],
      [
        "e",
        "cho"
      ],
      [
        "kanga",
        "roo "
      ],
      [
        " tre",
        "es"
      ],
      [
        "knew",
        " that "
      ],
      [
        "c",
        "ces"
      ],
      [
        "Why ",
        "did "
      ],
      [
        "ri",
        "fty "
      ],
      [
        "ci",
        "ent "
      ],
      [
        "du",
        "ck "
      ],
      [
        "O",
        "ld "
      ],
      [
        "D",
        "on't "
      ],
      [
        " ask",
        "ed "
      ],
      [
        "thought",
        ", \""
      ],
      [
        "woodpeck",
        "er "
      ],
      [
        "es",
        "s"
      ],
      [
        "ostri",
        "ch "
      ],
      [
        "sea",
        "we"
      ],
      [
        "chall",
        "en"
      ],
      [
        "c",
        "t"
      ],
      [
        " an",
        "y "
      ],
      [
        "gre",
        "en "
      ],
      [
        "I'm ",
        "glad "
      ],
      [
        "became ",
        "friends"
      ],
      [
        "H",
        "el"
      ],
      [
        "mu",
        "ch"
      ],
      [
        "explor",
        "ing the "
      ],
      [
        "th",
        "ings "
      ],
      [
        "s",
        "way"
      ],
      [
        "u",
        "e "
      ],
      [
        "cor",
        "al "
      ],
      [
        "hou",
        "se"
      ],
      [
        "mea",
        "n "
      ],
      [
        "en",
        "chant"
      ],
      [
        "fi",
        "x"
      ],
      [
        "ed",
        ", a "
      ],
      [
        "sp",
        "ent "
      ],
      [
        " d",
        "o "
      ],
      [
        "ri",
        "t"
      ],
      [
        "li",
        "es"
      ],
      [
        "ster",
        "s "
      ],
      [
        " b",
        "r"
      ],
      [
        ", feel",
        "ing "
      ],
      [
        "j",
        "e"
      ],
      [
        "wol",
        "f "
      ],
      [
        "</moral>\n<story>\nIn a ",
        "sunny "
      ],
      [
        "cru",
        "el"
      ],
      [
        "i",
        "v"
      ],
      [
        "!\"",
        " she "
      ],
      [
        "wol",
        "f"
      ],
      [
        " sh",
        "in"
      ],
      [
        "ed a",
        "b"
      ],
      [
        " a",
        "round"
      ],
      [
        " to",
        "ld"
      ],
      [
        "t",
        "es"
      ],
      [
        "Greed",
        "y "
      ],
      [
        "great",
        "est "
      ],
      [
        "je",
        "wel"
      ],
      [
        " t",
        "hi"
      ],
      [
        "valuable ",
        "lesson"
      ],
      [
        "min",
        "e"
      ],
      [
        "s",
        " and the "
      ],
      [
        "spott",
        "ed a "
      ],
      [
        "b",
        "old "
      ],
      [
        "ar",
        "row"
      ],
      [
        ".\n\nA",
        "s she "
      ],
      [
        "she ",
        "was "
      ],
      [
        "hedgeho",
        "g "
      ],
      [
        "roll",
        "ed in"
      ],
      [
        "ru",
        "st"
      ],
      [
        "h",
        "onest "
      ],
      [
        "orangut",
        "an"
      ],
      [
        "up",
        " the "
      ],
      [
        ".\n\nA",
        " "
      ],
      [
        "be",
        "es "
      ],
      [
        "on",
        "gest"
      ],
      [
        "w",
        "ent"
      ],
      [
        "day",
        ", the "
      ],
      [
        "m",
        "oth"
      ],
      [
        " tru",
        "ly "
      ],
      [
        "of",
        " f"
      ],
      [
        "str",
        "ongest"
      ],
      [
        "al",
        "m"
      ],
      [
        " what",
        " to do"
      ],
      [
        ", where the ",
        "sun"
      ],
      [
        "Strong",
        " "
      ],
      [
        "camel",
        " "
      ],
      [
        "e t",
        "ri"
      ],
      [
        "sna",
        "ke"
      ],
      [
        " th",
        "ings "
      ],
      [
        "cou",
        "ra"
      ],
      [
        "s",
        "hel"
      ],
      [
        "sm",
        "all"
      ],
      [
        "gor",
        "illa"
      ],
      [
        " thank",
        "ed the "
      ],
      [
        "sp",
        "read"
      ],
      [
        "prot",
        "ec"
      ],
      [
        " the t",
        "emp"
      ],
      [
        "firef",
        "ly "
      ],
      [
        "bran",
        "ch"
      ],
      [
        "gro",
        "ve"
      ],
      [
        "oas",
        "is"
      ],
      [
        "'",
        "s a"
      ],
      [
        ", and ",
        "he "
      ],
      [
        "when",
        " she "
      ],
      [
        "ge",
        "tt"
      ],
      [
        "some",
        "thing"
      ],
      [
        "learn",
        "ed that"
      ],
      [
        " they a",
        "ll "
      ],
      [
        "understand",
        "ing"
      ],
      [
        " t",
        "iny "
      ],
      [
        "ss",
        "ion"
      ],
      [
        "koal",
        "a "
      ],
      [
        "gu",
        "id"
      ],
      [
        "rem",
        "ind"
      ],
      [
        "c",
        "our"
      ],
      [
        "ogether",
        ", the "
      ],
      [
        "passion",
        "ate "
      ],
      [
        "m",
        "oody "
      ],
      [
        "happ",
        "i"
      ],
      [
        "gener",
        "osity "
      ],
      [
        "I'",
        "ve "
      ],
      [
        ", and ",
        "soon"
      ],
      [
        " b",
        "o"
      ],
      [
        "m",
        "ind"
      ],
      [
        ". \"",
        "You"
      ],
      [
        "brou",
        "ght "
      ],
      [
        " s",
        "un"
      ],
      [
        "s",
        ".\"\n\nThe "
      ],
      [
        "T",
        "his "
      ],
      [
        "ver",
        "y"
      ],
      [
        "uti",
        "on"
      ],
      [
        "color",
        "ful "
      ],
      [
        "W",
        "a"
      ],
      [
        "shar",
        "k "
      ],
      [
        "epend",
        "able "
      ],
      [
        "a",
        "ster"
      ],
      [
        "clum",
        "sy "
      ],
      [
        "sea",
        " t"
      ],
      [
        "strong w",
        "ind "
      ],
      [
        "st",
        "and"
      ],
      [
        "H",
        "ear"
      ],
      [
        ". ",
        "One "
      ],
      [
        "hid",
        "e "
      ],
      [
        "O",
        "h"
      ],
      [
        "ed to ",
        "be "
      ],
      [
        "un",
        "i"
      ],
      [
        "wi",
        "ld"
      ],
      [
        "benea",
        "th"
      ],
      [
        "ce",
        "ited "
      ],
      [
        "had",
        "ow"
      ],
      [
        "being ",
        "kind and "
      ],
      [
        "do",
        "g "
      ],
      [
        "stopp",
        "ed "
      ],
      [
        "ha",
        "re"
      ],
      [
        " an ",
        "idea"
      ],
      [
        "D",
        "is"
      ],
      [
        " t",
        "emp"
      ],
      [
        "exc",
        "laim"
      ],
      [
        "b",
        "al"
      ],
      [
        "we",
        "'re "
      ],
      [
        "fi",
        "eld"
      ],
      [
        "e",
        "k"
      ],
      [
        ", and ",
        "it "
      ],
      [
        " sp",
        "o"
      ],
      [
        "dece",
        "it"
      ],
      [
        "s",
        "oft"
      ],
      [
        "scorpi",
        "on "
      ],
      [
        "sta",
        "y "
      ],
      [
        "p",
        "ig "
      ],
      [
        "uni",
        "qu"
      ],
      [
        " th",
        "reat"
      ],
      [
        "mbl",
        "ing "
      ],
      [
        "ch",
        "ing "
      ],
      [
        "lo",
        "ck"
      ],
      [
        "rem",
        "bl"
      ],
      [
        "hedgeho",
        "g"
      ],
      [
        "gr",
        "owl"
      ],
      [
        "deli",
        "cious "
      ],
      [
        "be",
        "ing"
      ],
      [
        ". S",
        "o"
      ],
      [
        "c",
        "unning "
      ],
      [
        "dolp",
        "hin "
      ],
      [
        " a",
        "way "
      ],
      [
        " team",
        "work"
      ],
      [
        " shar",
        "e the "
      ],
      [
        "ke",
        "y"
      ],
      [
        "tt",
        "en"
      ],
      [
        "hyen",
        "a "
      ],
      [
        "excit",
        "ement"
      ],
      [
        "loved to ",
        "play"
      ],
      [
        "of",
        " c"
      ],
      [
        "differ",
        "ent "
      ],
      [
        "O",
        "ne"
      ],
      [
        "be",
        "lli"
      ],
      [
        " c",
        "ould "
      ],
      [
        "shri",
        "mp"
      ],
      [
        "joy",
        "ful "
      ],
      [
        "pi",
        "ck"
      ],
      [
        "peli",
        "can "
      ],
      [
        "worked together",
        " to "
      ],
      [
        "sec",
        "ret "
      ],
      [
        "friend",
        "s and "
      ],
      [
        "oo",
        "l "
      ],
      [
        "play",
        "ing "
      ],
      [
        "flo",
        "at"
      ],
      [
        "s",
        "il"
      ],
      [
        "stor",
        "k "
      ],
      [
        "word",
        "s"
      ],
      [
        "ci",
        "pl"
      ],
      [
        "wise old owl ",
        "perched on a "
      ],
      [
        ". ",
        "N"
      ],
      [
        "jagu",
        "ar"
      ],
      [
        "bu",
        "r"
      ],
      [
        "wh",
        "ite "
      ],
      [
        "st",
        "op"
      ],
      [
        ".\"\n\n",
        "A"
      ],
      [
        "fal",
        "con "
      ],
      [
        "a",
        "gain"
      ],
      [
        "g",
        "o "
      ],
      [
        "a b",
        "ig"
      ],
      [
        "m",
        "ing "
      ],
      [
        "be",
        "st"
      ],
      [
        ". H",
        "is "
      ],
      [
        "gi",
        "ft"
      ],
      [
        "koal",
        "a"
      ],
      [
        "pass",
        "ed, and the "
      ],
      [
        " th",
        "ing"
      ],
      [
        "when",
        " they "
      ],
      [
        "sh",
        "one "
      ],
      [
        "shri",
        "mp "
      ],
      [
        "r",
        "us"
      ],
      [
        "P",
        "lea"
      ],
      [
        "learn",
        "ed a "
      ],
      [
        "us",
        "ion"
      ],
      [
        "bo",
        "ar "
      ],
      [
        "magic",
        "al "
      ],
      [
        "he ",
        "had "
      ],
      [
        "fel",
        "t a "
      ],
      [
        "ing",
        ", a "
      ],
      [
        "c",
        "ould"
      ],
      [
        "P",
        "a"
      ],
      [
        "peb",
        "bl"
      ],
      [
        "fro",
        "g "
      ],
      [
        "buil",
        "d "
      ],
      [
        "other",
        "s, "
      ],
      [
        " to",
        "ld "
      ],
      [
        "fle",
        "w "
      ],
      [
        "wa",
        "it"
      ],
      [
        "cardin",
        "al "
      ],
      [
        ", ",
        "watching the "
      ],
      [
        " f",
        "ind"
      ],
      [
        "w",
        "ings"
      ],
      [
        "buil",
        "t a "
      ],
      [
        " s",
        "car"
      ],
      [
        "b",
        "an"
      ],
      [
        "b",
        "bor"
      ],
      [
        " f",
        "le"
      ],
      [
        "storm ",
        "rolled in"
      ],
      [
        "ey",
        "es and "
      ],
      [
        "swa",
        "n "
      ],
      [
        " f",
        "ill"
      ],
      [
        "d",
        "ance "
      ],
      [
        "f",
        "low"
      ],
      [
        "lived ",
        "in the "
      ],
      [
        "ing ",
        "her"
      ],
      [
        "star",
        "fish "
      ],
      [
        "realiz",
        "ed that"
      ],
      [
        "wast",
        "el"
      ],
      [
        "st",
        " the "
      ],
      [
        "fear",
        "less "
      ],
      [
        "ear",
        "s "
      ],
      [
        "laught",
        "er and "
      ],
      [
        "coll",
        "ect "
      ],
      [
        "ou",
        "n"
      ],
      [
        "W",
        "e're "
      ],
      [
        "li",
        "f"
      ],
      [
        " agre",
        "ement"
      ],
      [
        "sp",
        "ot"
      ],
      [
        "zebra",
        " "
      ],
      [
        "creat",
        "e "
      ],
      [
        "'s ",
        "heart "
      ],
      [
        "b",
        "ar"
      ],
      [
        "was ",
        "very "
      ],
      [
        "r",
        "ush"
      ],
      [
        "do",
        "g"
      ],
      [
        " an",
        "imal"
      ],
      [
        "liv",
        "es "
      ],
      [
        "start",
        "ed "
      ],
      [
        "be",
        "en "
      ],
      [
        "wouldn't ",
        "listen"
      ],
      [
        "?\"",
        "\n\n"
      ],
      [
        "friend",
        "s, "
      ],
      [
        "watch",
        " the "
      ],
      [
        " tre",
        "es "
      ],
      [
        " b",
        "ig"
      ],
      [
        ".\n\n",
        "But"
      ],
      [
        "b",
        "oth"
      ],
      [
        "fra",
        "id "
      ],
      [
        "cipl",
        "ined "
      ],
      [
        "t",
        "reasure"
      ],
      [
        "g",
        "low"
      ],
      [
        "be",
        "tter "
      ],
      [
        "pre",
        "vent"
      ],
      [
        "whisper",
        "ed "
      ],
      [
        "i",
        "gh"
      ],
      [
        "pan",
        "g "
      ],
      [
        "fra",
        "id"
      ],
      [
        ". A",
        "s the "
      ],
      [
        "I",
        " can "
      ],
      [
        "t",
        "ri"
      ],
      [
        "magi",
        "cal"
      ],
      [
        "care",
        "ful"
      ],
      [
        "bra",
        "ve"
      ],
      [
        "feather",
        "s "
      ],
      [
        "ask",
        "ed the "
      ],
      [
        " trick",
        "s "
      ],
      [
        "a",
        "pologiz"
      ],
      [
        "humili",
        "ty "
      ],
      [
        "realized that ",
        "she "
      ],
      [
        "ing ",
        "it "
      ],
      [
        "hou",
        "se "
      ],
      [
        "differ",
        "ent"
      ],
      [
        "cro",
        "ss the "
      ],
      [
        "is",
        " a "
      ],
      [
        "mi",
        "sty "
      ],
      [
        "re",
        "li"
      ],
      [
        "ch",
        "ur"
      ],
      [
        "persever",
        "ance "
      ],
      [
        "ea",
        "lou"
      ],
      [
        " try",
        "ing"
      ],
      [
        "J",
        "ust "
      ],
      [
        "deep",
        " b"
      ],
      [
        "learned a ",
        "valuable lesson"
      ],
      [
        "bird",
        "'s "
      ],
      [
        "was",
        " about"
      ],
      [
        "gla",
        "ci"
      ],
      [
        ", we ",
        "can "
      ],
      [
        "liv",
        "ed. The "
      ],
      [
        "underst",
        "ood"
      ],
      [
        "t",
        "er "
      ],
      [
        "pri",
        "de "
      ],
      [
        "destro",
        "y"
      ],
      [
        "with",
        "out "
      ],
      [
        "b",
        "reak"
      ],
      [
        "puma",
        " "
      ],
      [
        "Qui",
        "ck "
      ],
      [
        "empath",
        "y "
      ],
      [
        " f",
        "el"
      ],
      [
        " s",
        "m"
      ],
      [
        " accept",
        "ance "
      ],
      [
        "S",
        "quirre"
      ],
      [
        "!\"",
        " the "
      ],
      [
        "ti",
        "mi"
      ],
      [
        "stu",
        "bbor"
      ],
      [
        "stor",
        "k"
      ],
      [
        ". One day",
        ", a "
      ],
      [
        "jagu",
        "ar "
      ],
      [
        "bla",
        "ck"
      ],
      [
        "perf",
        "ect"
      ],
      [
        "re",
        "build"
      ],
      [
        "hid",
        "e"
      ],
      [
        "un",
        "ti"
      ],
      [
        "ly",
        ", "
      ],
      [
        "mounta",
        "in"
      ],
      [
        "of",
        "f "
      ],
      [
        "cauti",
        "ous "
      ],
      [
        "d",
        "en"
      ],
      [
        "s",
        "or"
      ],
      [
        "ed ",
        "like "
      ],
      [
        "bask",
        "et "
      ],
      [
        "an",
        "y "
      ],
      [
        "si",
        "st"
      ],
      [
        "ed",
        ","
      ],
      [
        "e",
        "ve "
      ],
      [
        "lou",
        "der"
      ],
      [
        "work together",
        " and "
      ],
      [
        "ing ",
        "its "
      ],
      [
        "ident",
        "ally "
      ],
      [
        ".\n\n",
        "But "
      ],
      [
        "si",
        "ble "
      ],
      [
        "S",
        "ea"
      ],
      [
        "perf",
        "ect "
      ],
      [
        " a sm",
        "all"
      ],
      [
        "underst",
        "and "
      ],
      [
        "c",
        "ent"
      ],
      [
        "remember",
        "ed the "
      ],
      [
        "scorpi",
        "on"
      ],
      [
        "s",
        "weet"
      ],
      [
        "ed in",
        " agreement"
      ],
      [
        "orangut",
        "an "
      ],
      [
        "w",
        "ould"
      ],
      [
        "j",
        "ealou"
      ],
      [
        "it",
        "self"
      ],
      [
        "lush",
        " "
      ],
      [
        "flaming",
        "o "
      ],
      [
        "m",
        "es "
      ],
      [
        "pe",
        "ople "
      ],
      [
        " the t",
        "reasure"
      ],
      [
        "glitter",
        "ing "
      ],
      [
        "H",
        "onest "
      ],
      [
        "ing ",
        "his "
      ],
      [
        "work",
        "ed, the "
      ],
      [
        "F",
        "riend"
      ],
      [
        "from that day on",
        ", the "
      ],
      [
        "cast",
        "le"
      ],
      [
        "was",
        "n't"
      ],
      [
        "ed ",
        "his "
      ],
      [
        "I'm sor",
        "ry"
      ],
      [
        "ed",
        ". He "
      ],
      [
        " abo",
        "ve the "
      ],
      [
        "struggl",
        "ing"
      ],
      [
        " t",
        "unnel"
      ],
      [
        "sincer",
        "e "
      ],
      [
        "ne",
        "t"
      ],
      [
        "pea",
        "ce "
      ],
      [
        "es",
        "s "
      ],
      [
        "st",
        "all"
      ],
      [
        "crick",
        "et"
      ],
      [
        "peli",
        "can"
      ],
      [
        "d",
        "ependable "
      ],
      [
        "she",
        "ep "
      ],
      [
        " saw",
        " the "
      ],
      [
        "li",
        "t "
      ],
      [
        "every",
        "thing"
      ],
      [
        "home ",
        "was "
      ],
      [
        "roo",
        "ster"
      ],
      [
        " tim",
        "e, "
      ],
      [
        "wa",
        "re"
      ],
      [
        "wor",
        "ld"
      ],
      [
        "hom",
        "es"
      ],
      [
        "</moral>\n<story>\nOn",
        " the "
      ],
      [
        "</char>\n<moral>",
        " a "
      ],
      [
        "listen",
        " to "
      ],
      [
        "m",
        "oth "
      ],
      [
        "rev",
        "eal"
      ],
      [
        "ff",
        "y "
      ],
      [
        "made ",
        "her "
      ],
      [
        "war",
        "n"
      ],
      [
        "cam",
        "e to the "
      ],
      [
        "shar",
        "p"
      ],
      [
        " spec",
        "ial"
      ],
      [
        "</moral>\n<story>\n",
        "Deep "
      ],
      [
        "fortre",
        "ss"
      ],
      [
        ".\n\n",
        "Days "
      ],
      [
        "spid",
        "er"
      ],
      [
        "gro",
        "tt"
      ],
      [
        "hot ",
        "spr"
      ],
      [
        "under",
        " the "
      ],
      [
        "full ",
        "of "
      ],
      [
        "c",
        "oopera"
      ],
      [
        "didn't know",
        " what to do"
      ],
      [
        "st",
        "one "
      ],
      [
        "mis",
        "s"
      ],
      [
        "saw",
        " a "
      ],
      [
        "k",
        "new "
      ],
      [
        "regre",
        "t"
      ],
      [
        "he ",
        "was "
      ],
      [
        "re",
        "ward"
      ],
      [
        "beh",
        "ind"
      ],
      [
        "fel",
        "t"
      ],
      [
        "shar",
        "ed the "
      ],
      [
        "still",
        " "
      ],
      [
        "ure",
        "d "
      ],
      [
        "ostri",
        "ch"
      ],
      [
        "was ",
        "surpris"
      ],
      [
        "C",
        "a"
      ],
      [
        "ladybu",
        "g "
      ],
      [
        "had",
        " an idea"
      ],
      [
        "pri",
        "se"
      ],
      [
        "long",
        " "
      ],
      [
        "lived",
        ". This "
      ],
      [
        "wor",
        "ry"
      ],
      [
        " tre",
        "e "
      ],
      [
        "p",
        "et"
      ],
      [
        "d",
        "id"
      ],
      [
        "Ow",
        "l"
      ],
      [
        "play",
        "ing"
      ],
      [
        "sun",
        " s"
      ],
      [
        ", ",
        "known for "
      ],
      [
        "bl",
        "ue "
      ],
      [
        "hyen",
        "a"
      ],
      [
        ", ",
        "its "
      ],
      [
        "h",
        "owl"
      ],
      [
        "v",
        "a"
      ],
      [
        "hi",
        "d "
      ],
      [
        "oo",
        "se"
      ],
      [
        "care",
        "d "
      ],
      [
        "w",
        "id"
      ],
      [
        "n",
        "er"
      ],
      [
        ".\" ",
        "From that day on, the "
      ],
      [
        "help",
        "ful "
      ],
      [
        "ll",
        " the "
      ],
      [
        "liv",
        "ed with "
      ],
      [
        "giv",
        "ing "
      ],
      [
        "wasp",
        " "
      ],
      [
        "M",
        "o"
      ],
      [
        ". The ",
        "owl "
      ],
      [
        "it",
        "s"
      ],
      [
        "by",
        "rin"
      ],
      [
        "hat's ",
        "wrong"
      ],
      [
        "no",
        "ble "
      ],
      [
        "ed",
        "s "
      ],
      [
        ". ",
        "Let's "
      ],
      [
        "t",
        "u"
      ],
      [
        "ey",
        "e "
      ],
      [
        "S",
        "h"
      ],
      [
        "ck",
        "less "
      ],
      [
        "beautiful",
        " s"
      ],
      [
        "friend",
        ", a "
      ],
      [
        ". I",
        "t"
      ],
      [
        ", and ",
        "her "
      ],
      [
        "didn't ",
        "want to "
      ],
      [
        ". The",
        "y a"
      ],
      [
        "ne",
        "ed to "
      ],
      [
        "bloo",
        "med "
      ],
      [
        "incer",
        "ity "
      ],
      [
        "heart",
        "broken"
      ],
      [
        "watch",
        "ed the "
      ],
      [
        "ed",
        ", but the "
      ],
      [
        "way",
        " to "
      ],
      [
        " w",
        "hat "
      ],
      [
        "S",
        "p"
      ],
      [
        "or",
        "char"
      ],
      [
        "prevent",
        "s "
      ],
      [
        "G",
        "i"
      ],
      [
        " away",
        ", "
      ],
      [
        "be",
        "come "
      ],
      [
        "vi",
        "bran"
      ],
      [
        "S",
        "neaky "
      ],
      [
        "I'm ",
        "not "
      ],
      [
        "chamele",
        "on "
      ],
      [
        "flower",
        "s"
      ],
      [
        "cau",
        "ght "
      ],
      [
        "gener",
        "ous "
      ],
      [
        "ec",
        "ret "
      ],
      [
        "M",
        "y "
      ],
      [
        "coral ",
        "reef"
      ],
      [
        "cheetah",
        " "
      ],
      [
        "ga",
        "z"
      ],
      [
        ", ",
        "everyone "
      ],
      [
        ". I",
        "f "
      ],
      [
        "learn",
        "ed to"
      ],
      [
        "ed ",
        "it "
      ],
      [
        "bea",
        "m"
      ],
      [
        " s",
        "o "
      ],
      [
        "ing ",
        "with"
      ],
      [
        "le",
        "s "
      ],
      [
        "ic",
        "ious "
      ],
      [
        "carefull",
        "y "
      ],
      [
        "melo",
        "di"
      ],
      [
        "bu",
        "st"
      ],
      [
        "can",
        "y"
      ],
      [
        "colorful",
        " flower"
      ],
      [
        ", ",
        "d"
      ],
      [
        "fa",
        "vorite "
      ],
      [
        "vo",
        "ic"
      ],
      [
        "s",
        "low"
      ],
      [
        "t",
        "wo "
      ],
      [
        "cou",
        "n"
      ],
      [
        "anc",
        "es "
      ],
      [
        "sad",
        " and"
      ],
      [
        ".\n\n",
        "H"
      ],
      [
        " and",
        " then said, \""
      ],
      [
        "cat",
        "ch "
      ],
      [
        "r",
        "ink"
      ],
      [
        "ed",
        " they "
      ],
      [
        "explain",
        "ed "
      ],
      [
        "cru",
        "mbling "
      ],
      [
        "de",
        "er"
      ],
      [
        ". The ",
        "rabbit "
      ],
      [
        "in ",
        "need"
      ],
      [
        "li",
        "ve "
      ],
      [
        "sh",
        "rin"
      ],
      [
        "nodd",
        "ed in agreement"
      ],
      [
        "do",
        "es"
      ],
      [
        "worked ",
        "hard"
      ],
      [
        "so",
        "ar"
      ],
      [
        "she",
        "ep"
      ],
      [
        "ed a",
        "gain"
      ],
      [
        "ol",
        "ution"
      ],
      [
        "f",
        "riend "
      ],
      [
        "king",
        "dom"
      ],
      [
        " swa",
        "m "
      ],
      [
        "su",
        "ggest"
      ],
      [
        "keep",
        " the "
      ],
      [
        "brid",
        "ge "
      ],
      [
        "we",
        "ll"
      ],
      [
        "mb",
        "oo"
      ],
      [
        "no ",
        "long"
      ],
      [
        "kind ",
        "heart"
      ],
      [
        "c",
        "ity"
      ],
      [
        "surround",
        "ed by "
      ],
      [
        ".\n\nT",
        "ogether, they "
      ],
      [
        "ed a",
        "t "
      ],
      [
        " al",
        "ong"
      ],
      [
        "ga",
        "ther "
      ],
      [
        "famil",
        "y"
      ],
      [
        "I",
        "m"
      ],
      [
        "I'm sor",
        "ry "
      ],
      [
        "tes",
        "y "
      ],
      [
        "helping ",
        "others "
      ],
      [
        "br",
        "ing "
      ],
      [
        "gently ",
        "in the "
      ],
      [
        " s",
        "wim"
      ],
      [
        "be",
        "y"
      ],
      [
        " friend",
        "s, "
      ],
      [
        "s",
        " to the "
      ],
      [
        "her ",
        "days "
      ],
      [
        "jo",
        "y "
      ],
      [
        "with",
        " a s"
      ],
      [
        "laugh",
        "ed and said, \""
      ],
      [
        " tri",
        "ed to"
      ],
      [
        "ig",
        "er "
      ],
      [
        "be",
        "e"
      ],
      [
        "ec",
        "ond chan"
      ],
      [
        "cam",
        "e to "
      ],
      [
        "other",
        " sea"
      ],
      [
        "his ",
        "friends "
      ],
      [
        " food",
        " and "
      ],
      [
        "dra",
        "ma"
      ],
      [
        "qui",
        "et "
      ],
      [
        "d",
        "est "
      ],
      [
        "he",
        "'d "
      ],
      [
        "o",
        "k"
      ],
      [
        "mon",
        "aster"
      ],
      [
        "group ",
        "of"
      ],
      [
        "el",
        "d "
      ],
      [
        "ol",
        "ent "
      ],
      [
        "w",
        "on't "
      ],
      [
        "out",
        "lives "
      ],
      [
        "bright",
        "er"
      ],
      [
        "on",
        "es"
      ],
      [
        "strong",
        "est "
      ],
      [
        "with ",
        "you"
      ],
      [
        "pp",
        "ed "
      ],
      [
        "no ",
        "one "
      ],
      [
        " c",
        "ha"
      ],
      [
        " s",
        "w"
      ],
      [
        "f",
        "re"
      ],
      [
        "ill",
        "usion"
      ],
      [
        "ble",
        "w"
      ],
      [
        "ea",
        "u"
      ],
      [
        "pa",
        "t"
      ],
      [
        "m",
        "ir"
      ],
      [
        "er ",
        "place"
      ],
      [
        "notic",
        "ed the "
      ],
      [
        "smil",
        "ed. \""
      ],
      [
        "ra",
        "te "
      ],
      [
        "la",
        "byrin"
      ],
      [
        "sun",
        "light"
      ],
      [
        "group ",
        "of "
      ],
      [
        "ing",
        "ing "
      ],
      [
        "ot",
        "ed "
      ],
      [
        "ma",
        "y "
      ],
      [
        ", and",
        " their"
      ],
      [
        "le",
        "t"
      ],
      [
        "'s ",
        "friends "
      ],
      [
        "ed, ",
        "she "
      ],
      [
        " for ",
        "help"
      ],
      [
        "ac",
        "c"
      ],
      [
        "uniqu",
        "e "
      ],
      [
        "gu",
        "ll"
      ],
      [
        "other ",
        "creature"
      ],
      [
        "Why do ",
        "you "
      ],
      [
        "un",
        "ity"
      ],
      [
        "G",
        "o"
      ],
      [
        " treasure",
        "s "
      ],
      [
        "ha",
        "s "
      ],
      [
        "be",
        "ing s"
      ],
      [
        "se",
        "e "
      ],
      [
        "just",
        "ice "
      ],
      [
        "che",
        "st "
      ],
      [
        "be",
        "es"
      ],
      [
        "peace",
        "ful "
      ],
      [
        ".\" ",
        "But the "
      ],
      [
        "just",
        " a "
      ],
      [
        "ll",
        "y "
      ],
      [
        "streng",
        "th "
      ],
      [
        "s",
        ". They "
      ],
      [
        "its ",
        "friends"
      ],
      [
        "w",
        "ink"
      ],
      [
        ". A",
        "s she "
      ],
      [
        "ne",
        "ck"
      ],
      [
        "rea",
        "th"
      ],
      [
        "made ",
        "sur"
      ],
      [
        "watch",
        "ing"
      ],
      [
        "w",
        "hi"
      ],
      [
        ". \"",
        "You're "
      ],
      [
        "ed to ",
        "help"
      ],
      [
        "temp",
        "le "
      ],
      [
        "p",
        "alm"
      ],
      [
        "rea",
        "ch"
      ],
      [
        "ri",
        "ck"
      ],
      [
        "sly ",
        "fox"
      ],
      [
        "buffal",
        "o"
      ],
      [
        ". The ",
        "owl"
      ],
      [
        "mu",
        "ch "
      ],
      [
        "gratitu",
        "de "
      ],
      [
        "can ",
        "lead"
      ],
      [
        "star",
        "fish"
      ],
      [
        ". From that day on",
        ", she "
      ],
      [
        "jo",
        "in "
      ],
      [
        "a",
        "s "
      ],
      [
        "u",
        "ck"
      ],
      [
        "all",
        " the "
      ],
      [
        "ing",
        " to the "
      ],
      [
        " br",
        "ing "
      ],
      [
        "sk",
        "ill"
      ],
      [
        "s",
        "hadow"
      ],
      [
        "de",
        "ep "
      ],
      [
        "Hel",
        "p"
      ],
      [
        "every",
        "on"
      ],
      [
        "with",
        " s"
      ],
      [
        "clea",
        "n"
      ],
      [
        ", ",
        "you"
      ],
      [
        "bu",
        "sh"
      ],
      [
        " b",
        "ra"
      ],
      [
        "us",
        "ed her "
      ],
      [
        "her",
        "o"
      ],
      [
        "sp",
        "e"
      ],
      [
        ". I",
        "ts "
      ],
      [
        "warm",
        " sun"
      ],
      [
        "a",
        " s"
      ],
      [
        "ro",
        "gan"
      ],
      [
        "strong",
        " b"
      ],
      [
        ". \"",
        "But "
      ],
      [
        "ga",
        "ve the "
      ],
      [
        "en",
        "c"
      ],
      [
        "e",
        "th"
      ],
      [
        "heart",
        "s "
      ],
      [
        "ladybu",
        "g"
      ],
      [
        "ser",
        "ious "
      ],
      [
        "d",
        "y "
      ],
      [
        "lob",
        "ster"
      ],
      [
        "wa",
        "ves"
      ],
      [
        "sa",
        "il"
      ],
      [
        "edi",
        "ent "
      ],
      [
        "car",
        "rot"
      ],
      [
        "wor",
        "ld "
      ],
      [
        "dis",
        "ciplined "
      ],
      [
        " to f",
        "i"
      ],
      [
        "festi",
        "val"
      ],
      [
        ".\n\n",
        "Just then, a "
      ],
      [
        "work",
        " "
      ],
      [
        "ju",
        "ic"
      ],
      [
        "s",
        ".\n\nOne day, a "
      ],
      [
        "play",
        "ed together"
      ],
      [
        "I",
        "t's "
      ],
      [
        " a",
        "s a "
      ],
      [
        "pa",
        "w"
      ],
      [
        "dust",
        "y "
      ],
      [
        "hi",
        "ve"
      ],
      [
        "bur",
        "row"
      ],
      [
        "H",
        "um"
      ],
      [
        "om",
        "a"
      ],
      [
        "car",
        "ry"
      ],
      [
        "vibran",
        "t "
      ],
      [
        "sha",
        "p"
      ],
      [
        " thought about",
        " this"
      ],
      [
        "spec",
        "ial "
      ],
      [
        "serv",
        "ed "
      ],
      [
        "sp",
        "ark"
      ],
      [
        "o",
        "tter"
      ],
      [
        "dis",
        "app"
      ],
      [
        "wan",
        "t "
      ],
      [
        ".\n\n",
        "F"
      ],
      [
        " and the ",
        "rabbit "
      ],
      [
        " f",
        "o"
      ],
      [
        " friends",
        "hip "
      ],
      [
        "b",
        "at"
      ],
      [
        "from",
        " a "
      ],
      [
        "ea",
        "st"
      ],
      [
        "swa",
        "m "
      ],
      [
        "bust",
        "ling "
      ],
      [
        " f",
        "ly"
      ],
      [
        "lived",
        ". He "
      ],
      [
        "do ",
        "you "
      ],
      [
        " sa",
        "w "
      ],
      [
        "remember",
        "ed "
      ],
      [
        "st",
        "ret"
      ],
      [
        "s",
        ", but "
      ],
      [
        "C",
        "rab"
      ],
      [
        "found",
        " the "
      ],
      [
        "whisper",
        "ed, \""
      ],
      [
        ". E",
        "very "
      ],
      [
        "shar",
        "e the "
      ],
      [
        "mo",
        "on"
      ],
      [
        "Im",
        "pulsive "
      ],
      [
        "S",
        "na"
      ],
      [
        "up",
        "set"
      ],
      [
        "like ",
        "a "
      ],
      [
        " a sm",
        "all "
      ],
      [
        "i",
        "l "
      ],
      [
        "mar",
        "sh"
      ],
      [
        "kanga",
        "roo"
      ],
      [
        "mi",
        "le"
      ],
      [
        " t",
        "here"
      ],
      [
        "dd",
        "l"
      ],
      [
        "an",
        "y"
      ],
      [
        " any",
        "one "
      ],
      [
        "s",
        ". He "
      ],
      [
        "jung",
        "le"
      ],
      [
        " tak",
        "ing "
      ],
      [
        "fe",
        "ll"
      ],
      [
        "mean",
        " to "
      ],
      [
        " a",
        "sham"
      ],
      [
        "oop",
        "ed down"
      ],
      [
        ",",
        " their"
      ],
      [
        "car",
        "ni"
      ],
      [
        "air",
        " was "
      ],
      [
        " ar",
        "m"
      ],
      [
        "beau",
        "ty"
      ],
      [
        "ed a",
        "round"
      ],
      [
        "en",
        "ces"
      ],
      [
        "Wa",
        "it"
      ],
      [
        "shar",
        "ing and "
      ],
      [
        ", wher",
        "e t"
      ],
      [
        "skun",
        "k "
      ],
      [
        "conf",
        "li"
      ],
      [
        ",\" ",
        "it "
      ],
      [
        "t",
        "wo"
      ],
      [
        "sta",
        "y"
      ],
      [
        " as ",
        "he "
      ],
      [
        "bet",
        "ray"
      ],
      [
        "B",
        "ig "
      ],
      [
        "every ",
        "day"
      ],
      [
        "'",
        "ve "
      ],
      [
        "fill",
        "ed with the "
      ],
      [
        ".\n\nThe ",
        "moral of the story is"
      ],
      [
        "j",
        "ump"
      ],
      [
        " smil",
        "ed, "
      ],
      [
        "of b",
        "ird"
      ],
      [
        ". She ",
        "had "
      ],
      [
        "sha",
        "re"
      ],
      [
        "S",
        "wift "
      ],
      [
        "s ",
        "of "
      ],
      [
        "dra",
        "g"
      ],
      [
        ", ",
        "see"
      ],
      [
        "fi",
        "ant "
      ],
      [
        "collect",
        "ing "
      ],
      [
        " ",
        "of "
      ],
      [
        " the t",
        "re"
      ],
      [
        "fish",
        " and "
      ],
      [
        ", and ",
        "so"
      ],
      [
        "in ",
        "his "
      ],
      [
        "ed ",
        "gently in the "
      ],
      [
        "looked a",
        "round"
      ],
      [
        "en",
        "em"
      ],
      [
        "a big",
        " differ"
      ],
      [
        "ear",
        "ched "
      ],
      [
        "ba",
        "mboo"
      ],
      [
        "y",
        "ear"
      ],
      [
        "ed",
        ".\n\n\""
      ],
      [
        "be",
        "low"
      ],
      [
        "knocked ",
        "over a "
      ],
      [
        "c",
        "ult"
      ],
      [
        "st",
        "ol"
      ],
      [
        "th",
        "is "
      ],
      [
        "pu",
        "zz"
      ],
      [
        "int",
        "er"
      ],
      [
        "days ",
        "passed, the "
      ],
      [
        "che",
        "st"
      ],
      [
        "chamele",
        "on"
      ],
      [
        "whispered ",
        "secret"
      ],
      [
        "ed ",
        "for"
      ],
      [
        "i",
        "est "
      ],
      [
        "de",
        "f"
      ],
      [
        "pla",
        "t"
      ],
      [
        ", where ",
        "sun"
      ],
      [
        "my",
        "ster"
      ],
      [
        "Wh",
        "en"
      ],
      [
        "har",
        "m"
      ],
      [
        "s, ",
        "who "
      ],
      [
        "ben",
        "ef"
      ],
      [
        "valle",
        "y"
      ],
      [
        "with",
        "in the "
      ],
      [
        "seagull",
        "s "
      ],
      [
        "pati",
        "ent"
      ],
      [
        " smil",
        "ed. \""
      ],
      [
        "mak",
        "ing the "
      ],
      [
        " a",
        "s they "
      ],
      [
        ".\n\n",
        "But the "
      ],
      [
        "help",
        "ful"
      ],
      [
        " sp",
        "ot"
      ],
      [
        "with ",
        "her "
      ],
      [
        "ss",
        "i"
      ],
      [
        "fa",
        "ce "
      ],
      [
        "p",
        "ool"
      ],
      [
        "for",
        "gave "
      ],
      [
        "gre",
        "ed "
      ],
      [
        ", ",
        "The "
      ],
      [
        "E",
        "x"
      ],
      [
        "che",
        "s "
      ],
      [
        "us",
        "pic"
      ],
      [
        "was about",
        " to "
      ],
      [
        "s",
        "neaky "
      ],
      [
        "ed by",
        " a "
      ],
      [
        "gu",
        "il"
      ],
      [
        "a",
        "bl"
      ],
      [
        "a",
        "mon"
      ],
      [
        "he",
        "d "
      ],
      [
        " an",
        "ger"
      ],
      [
        "youn",
        "g "
      ],
      [
        "er ",
        "of the "
      ],
      [
        "up",
        " to the "
      ],
      [
        "bea",
        "ch"
      ],
      [
        "wastel",
        "and"
      ],
      [
        " fi",
        "x"
      ],
      [
        "lon",
        "ely"
      ],
      [
        ". She ",
        "realized that "
      ],
      [
        "commun",
        "ity"
      ],
      [
        ", ",
        "know"
      ],
      [
        "est ",
        "of"
      ],
      [
        "brok",
        "en "
      ],
      [
        "flu",
        "ffy "
      ],
      [
        "want",
        "ed to"
      ],
      [
        "how",
        " the "
      ],
      [
        "ston",
        "es "
      ],
      [
        "bo",
        "at"
      ],
      [
        "cha",
        "rac"
      ],
      [
        ". H",
        "owever"
      ],
      [
        "! ",
        "We "
      ],
      [
        "discover",
        "ed a "
      ],
      [
        "d",
        "idn't"
      ],
      [
        "le",
        "g"
      ],
      [
        ", ",
        "I "
      ],
      [
        "amon",
        "d"
      ],
      [
        "c",
        "laim"
      ],
      [
        "w",
        "k"
      ],
      [
        "ti",
        "v"
      ],
      [
        "em",
        "and"
      ],
      [
        "other ",
        "creatures"
      ],
      [
        "dev",
        "oted "
      ],
      [
        " t",
        "ir"
      ],
      [
        " sha",
        "red "
      ],
      [
        "geck",
        "o"
      ],
      [
        "loud",
        "ly"
      ],
      [
        " smil",
        "ed, knowing that "
      ],
      [
        "ent",
        "less "
      ],
      [
        "?\" ",
        "he "
      ],
      [
        "ed",
        ". "
      ],
      [
        "L",
        "a"
      ],
      [
        "fo",
        "llow"
      ],
      [
        "s a",
        "r"
      ],
      [
        "chas",
        "ed the "
      ],
      [
        "sa",
        "t"
      ],
      [
        "!",
        " The "
      ],
      [
        " su",
        "ggest"
      ],
      [
        "hid",
        "ing "
      ],
      [
        "Why ",
        "should "
      ],
      [
        "sav",
        "age "
      ],
      [
        ". But ",
        "one day"
      ],
      [
        "ban",
        "k"
      ],
      [
        "plat",
        "eau"
      ],
      [
        "watch",
        "ful "
      ],
      [
        "p",
        "ush"
      ],
      [
        "for ",
        "help"
      ],
      [
        "an",
        "na"
      ],
      [
        "jung",
        "le "
      ],
      [
        ", ",
        "his "
      ],
      [
        "l",
        "oo"
      ],
      [
        "I was ",
        "wrong"
      ],
      [
        "hung",
        "ry "
      ],
      [
        "it ",
        "had "
      ],
      [
        "You",
        "r"
      ],
      [
        "strong w",
        "ind"
      ],
      [
        ", a ",
        "wise "
      ],
      [
        " c",
        "lo"
      ],
      [
        "ed",
        " through"
      ],
      [
        "?\"",
        " asked the "
      ],
      [
        "Why are ",
        "you "
      ],
      [
        "on",
        "ly"
      ],
      [
        "sa",
        "t "
      ],
      [
        "urt",
        "le"
      ],
      [
        "libra",
        "ry"
      ],
      [
        "o ",
        "one "
      ],
      [
        "ke",
        "t "
      ],
      [
        "bask",
        "et"
      ],
      [
        "cour",
        "ty"
      ],
      [
        " and",
        " asked, \""
      ],
      [
        "ba",
        "ck "
      ],
      [
        "un",
        "ity "
      ],
      [
        "other",
        " s"
      ],
      [
        "them",
        " "
      ],
      [
        " ta",
        "il"
      ],
      [
        "cult",
        "ured "
      ],
      [
        "ed",
        ". They "
      ],
      [
        "ar",
        "k "
      ],
      [
        "on",
        "s "
      ],
      [
        "vo",
        "ice"
      ],
      [
        "stumbled upon a ",
        "hidden "
      ],
      [
        ", a",
        "s the "
      ],
      [
        "grew",
        " w"
      ],
      [
        "F",
        "or"
      ],
      [
        "hav",
        "e to "
      ],
      [
        "sen",
        "sible "
      ],
      [
        "k",
        "ill"
      ],
      [
        "<char> a ",
        "per"
      ],
      [
        "s",
        "oft "
      ],
      [
        "car",
        "ing for "
      ],
      [
        "wal",
        "rus"
      ],
      [
        "s ",
        "of"
      ],
      [
        "no ",
        "ma"
      ],
      [
        "kind",
        " to "
      ],
      [
        " sa",
        "id "
      ],
      [
        " c",
        "olor"
      ],
      [
        "how",
        "ever"
      ],
      [
        " f",
        "ox"
      ],
      [
        "en",
        "vy "
      ],
      [
        "her",
        " famil"
      ],
      [
        "other animals ",
        "in the "
      ],
      [
        "w",
        "her"
      ],
      [
        "ed to",
        "gether "
      ],
      [
        "great",
        "est"
      ],
      [
        "temp",
        "le's "
      ],
      [
        "ea",
        "ger"
      ],
      [
        "wer",
        "e t"
      ],
      [
        "f",
        "et"
      ],
      [
        "t",
        "urtle "
      ],
      [
        "</char>\n<moral>",
        " acceptance "
      ],
      [
        "wisdom",
        " "
      ],
      [
        "ou",
        "ra"
      ],
      [
        " them",
        "selves"
      ],
      [
        "other ",
        "birds "
      ],
      [
        "stood",
        " tall"
      ],
      [
        "in ",
        "harmony"
      ],
      [
        "fin",
        "ally "
      ],
      [
        "working",
        " together "
      ],
      [
        "clo",
        "ser"
      ],
      [
        "d",
        "es"
      ],
      [
        "S",
        "o"
      ],
      [
        "creat",
        "ure "
      ],
      [
        "pre",
        "ss"
      ],
      [
        "di",
        "amond"
      ],
      [
        "g",
        "ust "
      ],
      [
        " f",
        "ind a "
      ],
      [
        "is",
        "land "
      ],
      [
        "uti",
        "ful "
      ],
      [
        " ac",
        "ro"
      ],
      [
        "parro",
        "t"
      ],
      [
        " approa",
        "ched the "
      ],
      [
        "will",
        " be "
      ],
      [
        "s ",
        "</moral>\n<story>\nIn the "
      ],
      [
        "s ",
        "he "
      ],
      [
        "youn",
        "g"
      ],
      [
        "chur",
        "ch"
      ],
      [
        "T",
        "ogether, they "
      ],
      [
        "loved to explor",
        "e and "
      ],
      [
        "fi",
        "ght"
      ],
      [
        "ortois",
        "e"
      ],
      [
        "ed, ",
        "her "
      ],
      [
        "I ",
        "want to "
      ],
      [
        " f",
        "ur"
      ],
      [
        "known",
        " as the "
      ],
      [
        "v",
        "in"
      ],
      [
        "gather",
        "ed "
      ],
      [
        "ti",
        "ger"
      ],
      [
        "understand",
        "ing "
      ],
      [
        "em",
        "er"
      ],
      [
        "ri",
        "ver "
      ],
      [
        " an",
        "t "
      ],
      [
        "ing",
        " through the "
      ],
      [
        "weet ",
        "melodi"
      ],
      [
        "of all",
        ".\n</story>"
      ],
      [
        "s",
        "' "
      ],
      [
        "bl",
        "ind"
      ],
      [
        "invit",
        "es "
      ],
      [
        "pi",
        "rate "
      ],
      [
        " sh",
        "out"
      ],
      [
        "unti",
        "l"
      ],
      [
        "beneath",
        " the "
      ],
      [
        " al",
        "so"
      ],
      [
        "fisher",
        "m"
      ],
      [
        "</char>\n<moral> ",
        "generosity "
      ],
      [
        "<char> a ",
        "ind"
      ],
      [
        "ro",
        "om"
      ],
      [
        "home",
        ". The "
      ],
      [
        "loyal",
        "ty "
      ],
      [
        "g",
        "est "
      ],
      [
        "ha",
        "n "
      ],
      [
        "</char>\n<moral> ",
        "empathy "
      ],
      [
        "S",
        "he"
      ],
      [
        "labyrin",
        "th"
      ],
      [
        "</char>\n<moral> s",
        "incerity "
      ],
      [
        "leop",
        "ard"
      ],
      [
        "ok",
        "ay"
      ],
      [
        " for",
        "est"
      ],
      [
        "pu",
        "ll"
      ],
      [
        "said, \"",
        "We "
      ],
      [
        "c",
        "loud "
      ],
      [
        "spent ",
        "her days "
      ],
      [
        "pass",
        "ion "
      ],
      [
        "was a",
        "maz"
      ],
      [
        "cany",
        "on"
      ],
      [
        "c",
        "old"
      ],
      [
        "mus",
        "ic"
      ],
      [
        "happ",
        "il"
      ],
      [
        " too",
        "k "
      ],
      [
        " to fi",
        "x"
      ],
      [
        "v",
        "al "
      ],
      [
        "sm",
        "ar"
      ],
      [
        "ed a",
        "cross the "
      ],
      [
        "didn't know",
        " "
      ],
      [
        "heard",
        " the "
      ],
      [
        "mb",
        "it"
      ],
      [
        "cou",
        "nt"
      ],
      [
        "L",
        "ook"
      ],
      [
        "</char>\n<moral> ",
        "honesty "
      ],
      [
        "st",
        "one"
      ],
      [
        ". She ",
        "loved to "
      ],
      [
        "Why ",
        "don't "
      ],
      [
        "shin",
        "e "
      ],
      [
        "The",
        "y "
      ],
      [
        ". ",
        "\n\n"
      ],
      [
        "in ",
        "its "
      ],
      [
        "gold",
        "en"
      ],
      [
        "hi",
        "ver"
      ],
      [
        "reflec",
        "tion"
      ],
      [
        "k",
        "en "
      ],
      [
        "for",
        "th"
      ],
      [
        "sm",
        "all "
      ],
      [
        "food",
        " and "
      ],
      [
        "worked together",
        ", the "
      ],
      [
        "you",
        " do"
      ],
      [
        "nu",
        "ck "
      ],
      [
        "ed",
        ", but "
      ],
      [
        "u",
        "t"
      ],
      [
        "was",
        " too"
      ],
      [
        "fortre",
        "ss "
      ],
      [
        "flaming",
        "o"
      ],
      [
        "ship",
        "y"
      ],
      [
        "ed ",
        "on the "
      ],
      [
        "sa",
        "me "
      ],
      [
        "everyone ",
        "happy"
      ],
      [
        " a",
        "mong the "
      ],
      [
        "it",
        " all"
      ],
      [
        "shel",
        "ter"
      ],
      [
        "b",
        "it "
      ],
      [
        "ing ",
        "over the "
      ],
      [
        " fle",
        "w"
      ],
      [
        ", little ",
        "one"
      ],
      [
        "fer",
        "ret"
      ],
      [
        "s ",
        "</moral>\n<story>\n**The "
      ],
      [
        "uri",
        "ous "
      ],
      [
        " talk",
        " to the "
      ],
      [
        " ask",
        " the "
      ],
      [
        "rit",
        "able "
      ],
      [
        "ha",
        "m"
      ],
      [
        "grasshopp",
        "er"
      ],
      [
        " any",
        "one"
      ],
      [
        "ing",
        ".\n\nThe "
      ],
      [
        "looked at ",
        "her "
      ],
      [
        "H",
        "e "
      ],
      [
        "grew ",
        "stronger"
      ],
      [
        "O",
        "c"
      ],
      [
        "enchant",
        "ed "
      ],
      [
        "given",
        "ess "
      ],
      [
        "once ",
        "more"
      ],
      [
        " tea",
        "s"
      ],
      [
        "m",
        "ent"
      ],
      [
        " than ",
        "ever"
      ],
      [
        "li",
        "ft"
      ],
      [
        "ed ",
        "on"
      ],
      [
        "s",
        "ca"
      ],
      [
        "h",
        "opp"
      ],
      [
        "T",
        "hank you"
      ],
      [
        "stu",
        "ck "
      ],
      [
        "for",
        "go"
      ],
      [
        "does",
        "n't "
      ],
      [
        ", and ",
        "its "
      ],
      [
        " treasure",
        "s"
      ],
      [
        "p",
        "rudent "
      ],
      [
        " s",
        "low"
      ],
      [
        "s ",
        "in the "
      ],
      [
        "ful",
        " s"
      ],
      [
        "re",
        "belli"
      ],
      [
        "her f",
        "eather"
      ],
      [
        "feel",
        " "
      ],
      [
        "was ",
        "not "
      ],
      [
        "Why do ",
        "you"
      ],
      [
        "and",
        "-"
      ],
      [
        "deser",
        "t "
      ],
      [
        "B",
        "us"
      ],
      [
        "one ",
        "who "
      ],
      [
        "out ",
        "of the "
      ],
      [
        "com",
        "es "
      ],
      [
        "in ",
        "p"
      ],
      [
        "dist",
        "ance"
      ],
      [
        "new",
        " friends"
      ],
      [
        "big",
        "gest "
      ],
      [
        "chan",
        "ge"
      ],
      [
        "my ",
        "friend"
      ],
      [
        "nat",
        "ch"
      ],
      [
        "you ",
        "help "
      ],
      [
        "we ",
        "can"
      ],
      [
        ". ",
        "When we "
      ],
      [
        "how",
        " to "
      ],
      [
        " appreci",
        "at"
      ],
      [
        "knew",
        " she "
      ],
      [
        "m",
        "ed the "
      ],
      [
        "watch",
        "ed a"
      ],
      [
        "no ma",
        "tter "
      ],
      [
        ".",
        "."
      ],
      [
        "l",
        "ood"
      ],
      [
        "s and",
        " a "
      ],
      [
        "ing",
        " to"
      ],
      [
        "learned that ",
        "being "
      ],
      [
        "v",
        "y"
      ],
      [
        "way",
        "s "
      ],
      [
        ",",
        " their "
      ],
      [
        "pow",
        "er "
      ],
      [
        "no",
        "thing "
      ],
      [
        "W",
        "at"
      ],
      [
        "! ",
        "You"
      ],
      [
        "pri",
        "de"
      ],
      [
        "visit",
        " the "
      ],
      [
        "th",
        "ree "
      ],
      [
        "-",
        "and-"
      ],
      [
        " sha",
        "re"
      ],
      [
        "f",
        " we "
      ],
      [
        "s, ",
        "she "
      ],
      [
        " se",
        "en"
      ],
      [
        "next ",
        "day, the "
      ],
      [
        "came ",
        "up "
      ],
      [
        "continu",
        "ed to "
      ],
      [
        " tre",
        "es and "
      ],
      [
        "with ",
        "her"
      ],
      [
        "sp",
        "arrow"
      ],
      [
        "ld",
        "r"
      ],
      [
        "ing",
        ", she "
      ],
      [
        "opp",
        "re"
      ],
      [
        "d",
        "emand"
      ],
      [
        " d",
        "on't "
      ],
      [
        " thou",
        "ght the "
      ],
      [
        "s",
        "often"
      ],
      [
        "ri",
        "ous "
      ],
      [
        "be",
        "en"
      ],
      [
        "instea",
        "d"
      ],
      [
        "ob",
        "edient "
      ],
      [
        "ing sad",
        " and "
      ],
      [
        "s. ",
        "From that day on, the "
      ],
      [
        " to ",
        "have "
      ],
      [
        "pl",
        "ea"
      ],
      [
        ", and",
        " they all "
      ],
      [
        ", and ",
        "everyone "
      ],
      [
        "la",
        "st"
      ],
      [
        "v",
        "icious "
      ],
      [
        "mista",
        "ke "
      ],
      [
        "e",
        ", the "
      ],
      [
        "fro",
        "z"
      ],
      [
        ". She ",
        "loved "
      ],
      [
        "su",
        "a"
      ],
      [
        "cat",
        "e "
      ],
      [
        "cha",
        "se "
      ],
      [
        "sun",
        " shone bright"
      ],
      [
        "betwe",
        "en"
      ],
      [
        " shar",
        "ing "
      ],
      [
        "s",
        "and "
      ],
      [
        ". They ",
        "were "
      ],
      [
        "strong ",
        "gust "
      ],
      [
        "was ",
        "heartbroken"
      ],
      [
        "emp",
        "ty "
      ],
      [
        "was ",
        "happy"
      ],
      [
        "reinde",
        "er"
      ],
      [
        ".\n\n",
        "When the "
      ],
      [
        "le",
        "t's "
      ],
      [
        "gr",
        "and "
      ],
      [
        "s",
        ".\" The "
      ],
      [
        " sm",
        "all"
      ],
      [
        "sa",
        "d "
      ],
      [
        ", ",
        "us"
      ],
      [
        " a s",
        "ly "
      ],
      [
        ".\n\nDays ",
        "passed, and the "
      ],
      [
        "M",
        "onke"
      ],
      [
        " to se",
        "e "
      ],
      [
        "most ",
        "beautiful "
      ],
      [
        "nex",
        "t"
      ],
      [
        "pati",
        "ence "
      ],
      [
        " told",
        " the "
      ],
      [
        " tal",
        "ent"
      ],
      [
        " sparkl",
        "ing "
      ],
      [
        "qu",
        "a"
      ],
      [
        "sp",
        "read "
      ],
      [
        "far",
        "mer "
      ],
      [
        " any",
        "thing"
      ],
      [
        ". From then on",
        ", the "
      ],
      [
        "and",
        "on"
      ],
      [
        "was ",
        "right"
      ],
      [
        "T",
        "h"
      ],
      [
        "plac",
        "e to "
      ],
      [
        "if",
        " we "
      ],
      [
        "et",
        ", the "
      ],
      [
        "earch",
        "ing for"
      ],
      [
        "ru",
        "ff"
      ],
      [
        "ma",
        "tter"
      ],
      [
        "cormor",
        "ant"
      ],
      [
        "dig",
        "g"
      ],
      [
        "h",
        "old"
      ],
      [
        "sea t",
        "urtle "
      ],
      [
        " s",
        "ome "
      ],
      [
        "woodpeck",
        "er"
      ],
      [
        "is the ",
        "best "
      ],
      [
        " t",
        "erri"
      ],
      [
        "lea",
        "ve "
      ],
      [
        "your",
        "self"
      ],
      [
        "new",
        " friend"
      ],
      [
        "challen",
        "ge "
      ],
      [
        "L",
        "o"
      ],
      [
        "gra",
        "cious "
      ],
      [
        "when",
        "ever"
      ],
      [
        "c",
        "reak"
      ],
      [
        "would ",
        "often "
      ],
      [
        "rest",
        "less "
      ],
      [
        "s",
        "ound "
      ],
      [
        " feel",
        " "
      ],
      [
        "I d",
        "idn't"
      ],
      [
        "hard ",
        "work"
      ],
      [
        "p",
        "ond"
      ],
      [
        "ic",
        "al "
      ],
      [
        ". \"",
        "H"
      ],
      [
        " ar",
        "riv"
      ],
      [
        "mar",
        "ket "
      ],
      [
        "on",
        "'t"
      ],
      [
        "stor",
        "ies"
      ],
      [
        "her ",
        "own"
      ],
      [
        "lou",
        "ri"
      ],
      [
        "sc",
        "ent "
      ],
      [
        "ri",
        "p"
      ],
      [
        "e t",
        "ak"
      ],
      [
        "c",
        "ity "
      ],
      [
        "cheer",
        "ful "
      ],
      [
        "ci",
        "ent"
      ],
      [
        "over",
        "joy"
      ],
      [
        "per",
        "spec"
      ],
      [
        " te",
        "ll "
      ],
      [
        "orchar",
        "d"
      ],
      [
        "stea",
        "d"
      ],
      [
        ". I",
        "t's "
      ],
      [
        "**\n\n",
        "On"
      ],
      [
        "s",
        "our"
      ],
      [
        "went ",
        "by"
      ],
      [
        " chan",
        "g"
      ],
      [
        ".\n\nH",
        "owever"
      ],
      [
        "i",
        "z"
      ],
      [
        "l",
        "er"
      ],
      [
        "re",
        "et "
      ],
      [
        "gett",
        "ing "
      ],
      [
        "now ",
        "on"
      ],
      [
        "-and-",
        "see"
      ],
      [
        "hide",
        "-and-see"
      ],
      [
        "ing",
        " she "
      ],
      [
        " tru",
        "th"
      ],
      [
        " b",
        "oth "
      ],
      [
        "cha",
        "ritable "
      ],
      [
        "it",
        ". The "
      ],
      [
        "con",
        "ceited "
      ],
      [
        "instead ",
        "of "
      ],
      [
        " f",
        "ind the "
      ],
      [
        "ti",
        "ger "
      ],
      [
        "ed ",
        "gently"
      ],
      [
        "mbit",
        "ious "
      ],
      [
        "hid",
        "ing"
      ],
      [
        "used ",
        "his "
      ],
      [
        " decid",
        "ed to "
      ],
      [
        "shar",
        "p "
      ],
      [
        "our",
        "tesy "
      ],
      [
        " ar",
        "rogan"
      ],
      [
        "wind",
        "ing "
      ],
      [
        "A",
        "n"
      ],
      [
        "determin",
        "ed "
      ],
      [
        ", a ",
        "kind "
      ],
      [
        "un",
        "dra"
      ],
      [
        "eal",
        "ous "
      ],
      [
        "rabbit",
        ", "
      ],
      [
        " sp",
        "ark"
      ],
      [
        "eyes and ",
        "said, \""
      ],
      [
        ". He ",
        "realized that "
      ],
      [
        "ob",
        "serv"
      ],
      [
        "br",
        "ush"
      ],
      [
        "ruth",
        "less "
      ],
      [
        "e",
        ". She "
      ],
      [
        " tri",
        "ck "
      ],
      [
        "ed ",
        "back"
      ],
      [
        "ou",
        "b"
      ],
      [
        "la",
        "ming"
      ],
      [
        "ed ",
        "its "
      ],
      [
        "cra",
        "fty "
      ],
      [
        "pl",
        "oma"
      ],
      [
        ".\n\nAs the ",
        "sun s"
      ],
      [
        "H",
        "app"
      ],
      [
        " to",
        "wer"
      ],
      [
        "is",
        "ion"
      ],
      [
        "surpri",
        "se"
      ],
      [
        "qu",
        "ell"
      ],
      [
        " t",
        "wo "
      ],
      [
        "work",
        "ed"
      ],
      [
        "mo",
        "or"
      ],
      [
        " fi",
        "ght"
      ],
      [
        "rea",
        "ched the "
      ],
      [
        "search",
        "ing for"
      ],
      [
        "smil",
        "ed, knowing that "
      ],
      [
        "o",
        "ck"
      ],
      [
        ", a ",
        "sly "
      ],
      [
        "rock",
        "y "
      ],
      [
        "app",
        "roa"
      ],
      [
        "felt ",
        "sad and "
      ],
      [
        "s s",
        "way"
      ],
      [
        "an",
        "cient "
      ],
      [
        "ft",
        "er "
      ],
      [
        " away",
        ". The "
      ],
      [
        "'r",
        "e too"
      ],
      [
        "s",
        " to s"
      ],
      [
        "oo",
        "t"
      ],
      [
        "k",
        "y "
      ],
      [
        "deceit",
        "ful "
      ],
      [
        "help",
        "ing the "
      ],
      [
        "fla",
        "pp"
      ],
      [
        "re",
        "pa"
      ],
      [
        "c",
        "t "
      ],
      [
        "however",
        ", "
      ],
      [
        "th",
        "rough"
      ],
      [
        "li",
        "m"
      ],
      [
        "things ",
        "right"
      ],
      [
        "ed gently in the ",
        "breez"
      ],
      [
        "G",
        "ener"
      ],
      [
        "s",
        "earched "
      ],
      [
        "k",
        "ept"
      ],
      [
        "e",
        ", and the "
      ],
      [
        "b",
        "low"
      ],
      [
        "I ",
        "want"
      ],
      [
        "ri",
        "t "
      ],
      [
        "me",
        "et"
      ],
      [
        "par",
        "t "
      ],
      [
        "l",
        "ed the "
      ],
      [
        "ang",
        "er "
      ],
      [
        "di",
        "v"
      ],
      [
        "ed a",
        "ll the "
      ],
      [
        "sol",
        "ves "
      ],
      [
        " bo",
        "ast"
      ],
      [
        "notic",
        "ed that the "
      ],
      [
        "on",
        "e to "
      ],
      [
        "realiz",
        "ed the "
      ],
      [
        " smil",
        "ed, \""
      ],
      [
        "e",
        ".\n\nThe "
      ],
      [
        "s ",
        "danc"
      ],
      [
        "need",
        "ed "
      ],
      [
        "l",
        "ar"
      ],
      [
        " b",
        "ro"
      ],
      [
        "k",
        "en"
      ],
      [
        "ea",
        "t "
      ],
      [
        ", a ",
        "big, "
      ],
      [
        " tak",
        "e the "
      ],
      [
        "ed",
        " them "
      ],
      [
        "ni",
        "fi"
      ],
      [
        "d",
        "anger"
      ],
      [
        "for",
        "t"
      ],
      [
        "sto",
        "at"
      ],
      [
        "wi",
        "m "
      ],
      [
        " fa",
        "vorite "
      ],
      [
        "saf",
        "e and "
      ],
      [
        "skun",
        "k"
      ],
      [
        "look",
        " "
      ],
      [
        "sav",
        "anna"
      ],
      [
        "ha",
        "ll"
      ],
      [
        "was filled with ",
        "laughter and "
      ],
      [
        "kind ",
        "heart "
      ],
      [
        "!\" ",
        "But the "
      ],
      [
        "v",
        "est "
      ],
      [
        " t",
        "wi"
      ],
      [
        " tra",
        "pp"
      ],
      [
        "c",
        "y"
      ],
      [
        ".\"\n\n",
        "But the "
      ],
      [
        "fa",
        "ce"
      ],
      [
        "temp",
        "le"
      ],
      [
        "cruel",
        " "
      ],
      [
        "Oc",
        "to"
      ],
      [
        "R",
        "em"
      ],
      [
        "loved to explor",
        "e the "
      ],
      [
        "do ",
        "you"
      ],
      [
        "ent",
        "ran"
      ],
      [
        "ook",
        " "
      ],
      [
        " t",
        "rou"
      ],
      [
        " to ",
        "eat"
      ],
      [
        "right",
        "en"
      ],
      [
        "of ",
        "wind "
      ],
      [
        "with ",
        "me"
      ],
      [
        "ing",
        " all the "
      ],
      [
        " can",
        "'t "
      ],
      [
        "can make ",
        "a big differ"
      ],
      [
        "rea",
        "tiv"
      ],
      [
        "v",
        "ast"
      ],
      [
        "whisper",
        "ed to "
      ],
      [
        "mou",
        "se"
      ],
      [
        " as ",
        "it "
      ],
      [
        "gl",
        "en"
      ],
      [
        "dar",
        "k "
      ],
      [
        "quick",
        "ly"
      ],
      [
        "vent",
        "ure"
      ],
      [
        "under",
        "brush"
      ],
      [
        "W",
        "ings "
      ],
      [
        "eel",
        " "
      ],
      [
        "ed ",
        "in "
      ],
      [
        "b",
        "it"
      ],
      [
        "carni",
        "val"
      ],
      [
        "lived in a cozy ",
        "little "
      ],
      [
        "sua",
        "sive "
      ],
      [
        "W",
        "ith"
      ],
      [
        ", ",
        "even "
      ],
      [
        "watchful ",
        "eye "
      ],
      [
        "S",
        "low"
      ],
      [
        "fi",
        "eld "
      ],
      [
        "pre",
        "par"
      ],
      [
        "s",
        "ed "
      ],
      [
        "prot",
        "ect "
      ],
      [
        "oppre",
        "ssion"
      ],
      [
        "beh",
        "ind the "
      ],
      [
        "learn",
        "ed "
      ],
      [
        " for ",
        "her "
      ],
      [
        "I ",
        "have "
      ],
      [
        "lived a",
        "mong"
      ],
      [
        "a",
        "maz"
      ],
      [
        "listen",
        "ed to "
      ],
      [
        "cor",
        "al"
      ],
      [
        "can",
        " bring "
      ],
      [
        "wise old t",
        "ortoise "
      ],
      [
        " d",
        "eser"
      ],
      [
        "j",
        "ealous "
      ],
      [
        "c",
        "ep"
      ],
      [
        "ea",
        "red "
      ],
      [
        "ing",
        " fish"
      ],
      [
        "platy",
        "pus"
      ],
      [
        " an",
        "t"
      ],
      [
        "re",
        "ma"
      ],
      [
        "lea",
        "ves "
      ],
      [
        "T",
        "ortoise "
      ],
      [
        " f",
        "ound"
      ],
      [
        "gu",
        "ard"
      ],
      [
        " acro",
        "ss the "
      ],
      [
        " f",
        "ly "
      ],
      [
        "best ",
        "friend, a "
      ],
      [
        "sw",
        "ept"
      ],
      [
        "s",
        ". A"
      ],
      [
        " and",
        " ask"
      ],
      [
        "brave ",
        "and "
      ],
      [
        "Dis",
        "loyal "
      ],
      [
        " f",
        "ar"
      ],
      [
        ". W",
        "ith"
      ],
      [
        "e",
        "g"
      ],
      [
        " t",
        "reat"
      ],
      [
        "cast",
        "le's "
      ],
      [
        "v",
        "end"
      ],
      [
        " a s",
        "ecret "
      ],
      [
        " shar",
        "p"
      ],
      [
        "happi",
        "er place"
      ],
      [
        "Let",
        "'s"
      ],
      [
        "st",
        "al "
      ],
      [
        "m",
        "ur"
      ],
      [
        "Fox",
        " "
      ],
      [
        "pi",
        "rat"
      ],
      [
        "</moral>\n<story>\nIn the heart ",
        "of a "
      ],
      [
        "W",
        "ood"
      ],
      [
        "c",
        "y "
      ],
      [
        " b",
        "y "
      ],
      [
        "Squirre",
        "l"
      ],
      [
        "G",
        "old"
      ],
      [
        "disc",
        "reet "
      ],
      [
        "timi",
        "st"
      ],
      [
        "in",
        " d"
      ],
      [
        " to s",
        "har"
      ],
      [
        ", ",
        "so "
      ],
      [
        "rain",
        "b"
      ],
      [
        "ed in",
        "to"
      ],
      [
        " they ",
        "had "
      ],
      [
        ",\" he ",
        "said. \""
      ],
      [
        "would ",
        "be "
      ],
      [
        "int",
        "o "
      ],
      [
        "not ",
        "just "
      ],
      [
        "hu",
        "gg"
      ],
      [
        "S",
        "un"
      ],
      [
        "ignor",
        "ance "
      ],
      [
        "it ",
        "was"
      ],
      [
        ", a ",
        "wise old "
      ],
      [
        " to f",
        "ind"
      ],
      [
        " an",
        "other "
      ],
      [
        "stronger",
        " than"
      ],
      [
        "was ",
        "out "
      ],
      [
        "C",
        "or"
      ],
      [
        "ed ",
        "out "
      ],
      [
        ". \"",
        "The "
      ],
      [
        "sw",
        "ept "
      ],
      [
        " a",
        "t"
      ],
      [
        "was ",
        "so "
      ],
      [
        "par",
        "t"
      ],
      [
        "more ",
        "and "
      ],
      [
        "you",
        ".\"\n\nThe "
      ],
      [
        "ac",
        "t"
      ],
      [
        "sist",
        "ent "
      ],
      [
        "with",
        "in a "
      ],
      [
        "le",
        "ft"
      ],
      [
        "learn",
        "ed to "
      ],
      [
        "**\n\n",
        "Deep "
      ],
      [
        "deep b",
        "reath"
      ],
      [
        "d",
        "ge"
      ],
      [
        "f",
        "ind a "
      ],
      [
        "merma",
        "id "
      ],
      [
        "nifi",
        "ed "
      ],
      [
        " ac",
        "tion"
      ],
      [
        "P",
        "rou"
      ],
      [
        "co",
        "ve"
      ],
      [
        "oas",
        "is "
      ],
      [
        "'s",
        " a "
      ],
      [
        "ve",
        "st"
      ],
      [
        "ed a",
        "bo"
      ],
      [
        "Hear",
        "t "
      ],
      [
        "of ",
        "juicy "
      ],
      [
        "s a",
        "d"
      ],
      [
        "f",
        "all "
      ],
      [
        "commun",
        "ity "
      ],
      [
        "down",
        " "
      ],
      [
        ", who ",
        "was "
      ],
      [
        "la",
        "t"
      ],
      [
        "refus",
        "ed to "
      ],
      [
        "coopera",
        "tive "
      ],
      [
        ". \"",
        "Let's "
      ],
      [
        "whisper",
        "ed to the "
      ],
      [
        "M",
        "ou"
      ],
      [
        "explor",
        "e the "
      ],
      [
        "re",
        "w"
      ],
      [
        "andon",
        "ed "
      ],
      [
        "Rabb",
        "it"
      ],
      [
        " dis",
        "cover"
      ],
      [
        "!\" ",
        "he "
      ],
      [
        "du",
        "g"
      ],
      [
        "Gold",
        "en "
      ],
      [
        "pat",
        "ch "
      ],
      [
        "fu",
        "t"
      ],
      [
        "one ",
        "an"
      ],
      [
        "make ",
        "a "
      ],
      [
        "ing",
        " that"
      ],
      [
        " f",
        "low"
      ],
      [
        ", a ",
        "gentle "
      ],
      [
        "if",
        " she "
      ],
      [
        "b",
        "lock"
      ],
      [
        "m",
        "other "
      ],
      [
        "cep",
        "tive "
      ],
      [
        "river",
        "bank"
      ],
      [
        "catch",
        " the "
      ],
      [
        "s",
        "ound"
      ],
      [
        "econd chan",
        "ces "
      ],
      [
        ",\" he ",
        "said"
      ],
      [
        "t",
        "a"
      ],
      [
        "d",
        "ge "
      ],
      [
        "ness ",
        "prevents "
      ],
      [
        "sel",
        "f "
      ],
      [
        "ff",
        "ic"
      ],
      [
        "hom",
        "es "
      ],
      [
        "</moral>\n<story>\nIn the heart ",
        "of the "
      ],
      [
        "Ow",
        "l "
      ],
      [
        "From that day on",
        ", "
      ],
      [
        "felt a ",
        "pang "
      ],
      [
        "se ",
        "of "
      ],
      [
        "roam",
        "ed the "
      ],
      [
        ", ",
        "just "
      ],
      [
        ". \"W",
        "hat "
      ],
      [
        " spo",
        "tt"
      ],
      [
        "bey",
        "ond "
      ],
      [
        "ll",
        "ow "
      ],
      [
        "–",
        " a "
      ],
      [
        "Rem",
        "ember"
      ],
      [
        " an",
        "ger "
      ],
      [
        "s ",
        "it "
      ],
      [
        "da",
        "m"
      ],
      [
        "hidden ",
        "behind a "
      ],
      [
        "bamboo",
        " "
      ],
      [
        "s ",
        "for "
      ],
      [
        " acc",
        "identally "
      ],
      [
        "who",
        "le "
      ],
      [
        "with",
        "out"
      ],
      [
        "wa",
        "ves "
      ],
      [
        " some",
        "thing"
      ],
      [
        "coura",
        "ge"
      ],
      [
        "weet melodi",
        "es"
      ],
      [
        "not",
        " as "
      ],
      [
        "strong gust ",
        "of wind "
      ],
      [
        " fa",
        "ir"
      ],
      [
        " to s",
        "hare"
      ],
      [
        " s",
        "ecret"
      ],
      [
        "ro",
        "pic"
      ],
      [
        "ro",
        "ar"
      ],
      [
        "rev",
        "en"
      ],
      [
        "ed, ",
        "not "
      ],
      [
        "wi",
        "ft"
      ],
      [
        "pre",
        "cious "
      ],
      [
        "grott",
        "o"
      ],
      [
        "came up ",
        "with a "
      ],
      [
        "U",
        "nder"
      ],
      [
        ", and so",
        "on the "
      ],
      [
        " t",
        "here "
      ],
      [
        "ir",
        "d "
      ],
      [
        "cro",
        "ss"
      ],
      [
        "humming",
        "bird"
      ],
      [
        "drag",
        "on"
      ],
      [
        "chi",
        "ldr"
      ],
      [
        ", a",
        "sham"
      ],
      [
        "l",
        "entless "
      ],
      [
        "p",
        "ret"
      ],
      [
        " to",
        " take "
      ],
      [
        "ly",
        ", the "
      ],
      [
        " and ",
        "s"
      ],
      [
        " to ",
        "her"
      ],
      [
        " appreci",
        "ate "
      ],
      [
        "far",
        "m"
      ],
      [
        "fear",
        " "
      ],
      [
        "e ",
        "of "
      ],
      [
        "more t",
        "han "
      ],
      [
        "bu",
        "t"
      ],
      [
        "sh",
        "ow "
      ],
      [
        "f",
        "ree"
      ],
      [
        "wer",
        "e too"
      ],
      [
        "mistak",
        "es "
      ],
      [
        "ec",
        "tion"
      ],
      [
        " f",
        "e"
      ],
      [
        "T",
        "hat's "
      ],
      [
        "grow",
        " "
      ],
      [
        " friendship",
        " and "
      ],
      [
        "L",
        "et "
      ],
      [
        "ev",
        "ent"
      ],
      [
        "po",
        "is"
      ],
      [
        "surround",
        "ed by"
      ],
      [
        "be",
        "ing the "
      ],
      [
        "nearby",
        " tree"
      ],
      [
        "power",
        "ful "
      ],
      [
        ", a ",
        "little "
      ],
      [
        "sun",
        "-"
      ],
      [
        "w",
        "n"
      ],
      [
        "Rabb",
        "it "
      ],
      [
        "caus",
        "e t"
      ],
      [
        "m",
        "ind "
      ],
      [
        "pebbl",
        "es"
      ],
      [
        "near",
        " a "
      ],
      [
        "har",
        "bor"
      ],
      [
        "k",
        "un"
      ],
      [
        "creat",
        "ed a "
      ],
      [
        " f",
        "ound "
      ],
      [
        "m",
        "path"
      ],
      [
        " ta",
        "u"
      ],
      [
        ". ",
        "When the "
      ],
      [
        "mak",
        "ing"
      ],
      [
        "owl",
        " said, \""
      ],
      [
        "su",
        "cces"
      ],
      [
        "sand",
        "y "
      ],
      [
        "re",
        "served "
      ],
      [
        "do",
        "or"
      ],
      [
        "myster",
        "ious "
      ],
      [
        "Shar",
        "p "
      ],
      [
        "qu",
        "est"
      ],
      [
        "es",
        " the "
      ],
      [
        "ke ",
        "up"
      ],
      [
        "po",
        "int"
      ],
      [
        "ing ",
        "up"
      ],
      [
        ", and",
        " that"
      ],
      [
        "wise old owl perched on a ",
        "nearby "
      ],
      [
        "your ",
        "help"
      ],
      [
        "in the ",
        "land"
      ],
      [
        "visit",
        "ed the "
      ],
      [
        ",",
        " they"
      ],
      [
        "or",
        "n"
      ],
      [
        ", but",
        " a "
      ],
      [
        " should ",
        "have "
      ],
      [
        " and ",
        "play"
      ],
      [
        "dun",
        "es"
      ],
      [
        "ru",
        "m"
      ],
      [
        "vi",
        "ce"
      ],
      [
        "everyone",
        "'s "
      ],
      [
        " threat",
        "en"
      ],
      [
        " b",
        "oth"
      ],
      [
        " a ",
        "deep breath"
      ],
      [
        "of ",
        "her "
      ],
      [
        " for",
        "give "
      ],
      [
        "un",
        "lik"
      ],
      [
        "li",
        "pp"
      ],
      [
        " fa",
        "st"
      ],
      [
        "named ",
        "The "
      ],
      [
        " apologiz",
        "ed for "
      ],
      [
        "spi",
        "rit "
      ],
      [
        "G",
        "ul"
      ],
      [
        "storm ",
        "passed, the "
      ],
      [
        "er",
        ". The "
      ],
      [
        " to ",
        "her "
      ],
      [
        "float",
        "ing "
      ],
      [
        "Gul",
        "li"
      ],
      [
        "shar",
        "ing"
      ],
      [
        "firef",
        "ly"
      ],
      [
        "se",
        "t "
      ],
      [
        "ing f",
        "ood "
      ],
      [
        "chall",
        "eng"
      ],
      [
        "rabbit",
        "s"
      ],
      [
        " to f",
        "ind the "
      ],
      [
        "rea",
        "lly "
      ],
      [
        "Prou",
        "d "
      ],
      [
        "f",
        "ly "
      ],
      [
        "s. One day",
        ", while "
      ],
      [
        " a",
        "s"
      ],
      [
        "it",
        "ion"
      ],
      [
        "with ",
        "his "
      ],
      [
        "p",
        "ect"
      ],
      [
        "la",
        "z"
      ],
      [
        "hippopota",
        "mus"
      ],
      [
        "wind",
        "ow"
      ],
      [
        "li",
        "sh"
      ],
      [
        " trea",
        "sur"
      ],
      [
        " shar",
        "p "
      ],
      [
        "what ",
        "we "
      ],
      [
        "sp",
        "eak "
      ],
      [
        "most ",
        "beautiful"
      ],
      [
        "beli",
        "eve "
      ],
      [
        ",\"",
        " they "
      ],
      [
        " tak",
        "en"
      ],
      [
        "ro",
        "p"
      ],
      [
        ".\" ",
        "And "
      ],
      [
        "K",
        "ind"
      ],
      [
        "liz",
        "ard "
      ],
      [
        "</moral>\n<story>\n",
        "The "
      ],
      [
        "courty",
        "ard"
      ],
      [
        ". We ",
        "can"
      ],
      [
        "forth",
        "right "
      ],
      [
        ", and ",
        "from that day on"
      ],
      [
        "sid",
        "e, "
      ],
      [
        "green",
        "house"
      ],
      [
        "a",
        "way"
      ],
      [
        ". ",
        "Maybe "
      ],
      [
        "play ",
        "with the "
      ],
      [
        " t",
        "ortoise "
      ],
      [
        ", ",
        "you "
      ],
      [
        "el",
        "f"
      ],
      [
        "mi",
        "ght"
      ],
      [
        "smil",
        "ed, "
      ],
      [
        "ri",
        "val"
      ],
      [
        "no",
        "t the "
      ],
      [
        "W",
        "hat"
      ],
      [
        "mo",
        "dest "
      ],
      [
        "stu",
        "ck"
      ],
      [
        " felt ",
        "sad and "
      ],
      [
        " big",
        ", "
      ],
      [
        ", and",
        " that's "
      ],
      [
        "explain",
        "ed that "
      ],
      [
        "cor",
        "pi"
      ],
      [
        "sea",
        " "
      ],
      [
        "di",
        "ploma"
      ],
      [
        "can lead",
        " to "
      ],
      [
        ", ",
        "leav"
      ],
      [
        ", and ",
        "you"
      ],
      [
        "Bus",
        "y "
      ],
      [
        "W",
        "ol"
      ],
      [
        "m",
        "ol"
      ],
      [
        "fo",
        "sters "
      ],
      [
        " se",
        "e the "
      ],
      [
        " the",
        "se "
      ],
      [
        "dece",
        "iv"
      ],
      [
        "el",
        "se"
      ],
      [
        "v",
        "inc"
      ],
      [
        "Gulli",
        "ble "
      ],
      [
        "challen",
        "ge"
      ],
      [
        "stor",
        "ies "
      ],
      [
        "m",
        "id"
      ],
      [
        "Happ",
        "y "
      ],
      [
        "mb",
        "ol"
      ],
      [
        "Ex",
        "plor"
      ],
      [
        " an",
        "other"
      ],
      [
        ". The ",
        "other animals "
      ],
      [
        "mi",
        "ra"
      ],
      [
        "hea",
        "l "
      ],
      [
        "W",
        "hat's wrong"
      ],
      [
        "listen",
        " to the "
      ],
      [
        "unlik",
        "ely "
      ],
      [
        "event",
        "u"
      ],
      [
        "le ",
        "and "
      ],
      [
        "H",
        "one"
      ],
      [
        ", she ",
        "met a "
      ],
      [
        "big ",
        "storm "
      ],
      [
        "r",
        "p"
      ],
      [
        "its ",
        "friends "
      ],
[...]
