{
  "added_tokens": [
    {
      "content": "<char>",
      "id": 0,
      "lstrip": false,
      "normalized": false,
      "rstrip": false,
      "single_word": false,
      "special": true
    },
    {
      "content": "</char>",
      "id": 1,
      "lstrip": false,
      "normalized": false,
      "rstrip": false,
      "single_word": false,
      "special": true
    },
    {
      "content": "<moral>",
      "id": 2,
      "lstrip": false,
      "normalized": false,
      "rstrip": false,
      "single_word": false,
      "special": true
    },
    {
      "content": "</moral>",
      "id": 3,
      "lstrip": false,
      "normalized": false,
      "rstrip": false,
      "single_word": false,
      "special": true
    },
    {
      "content": "<story>",
      "id": 4,
      "lstrip": false,
      "normalized": false,
      "rstrip": false,
      "single_word": false,
      "special": true
    },
    {
      "content": "</story>",
      "id": 5,
      "lstrip": false,
      "normalized": false,
      "rstrip": false,
      "single_word": false,
      "special": true
    }
  ],
  "decoder": {
    "prepend_scheme": "always",
    "replacement": "▁",
    "split": true,
    "type": "Metaspace"
  },
  "model": {
    "byte_fallback": false,
    "continuing_subword_prefix": null,
    "dropout": null,
    "end_of_word_suffix": null,
    "fuse_unk": false,
    "ignore_merges": false,
    "merges": [
      [
        "h",
        "e"
      ],
      [
        "▁",
        "t"
      ],
      [
        "▁",
        "a"
      ],
      [
        "▁",
        "s"
      ],
      [
        "▁t",
        "he"
      ],
      [
        "i",
        "n"
      ],
      [
        "e",
        "d"
      ],
      [
        "▁",
        "w"
      ],
      [
        "n",
        "d"
      ],
      [
        "r",
        "e"
      ],
      [
        "▁",
        "f"
      ],
      [
        "▁",
        "b"
      ],
      [
        "h",
        "a"
      ],
      [
        "e",
        "r"
      ],
      [
        "▁",
        "o"
      ],
      [
        "o",
        "r"
      ],
      [
        "▁",
        "c"
      ],
      [
        "▁a",
        "nd"
      ],
      [
        "▁t",
        "o"
      ],
      [
        "in",
        "g"
      ],
      [
        "o",
        "u"
      ],
      [
        "s",
        "t"
      ],
      [
        "i",
        "t"
      ],
      [
        "T",
        "he"
      ],
      [
        "▁",
        "l"
      ],
      [
        "▁",
        "d"
      ],
      [
        "e",
        "a"
      ],
      [
        "o",
        "n"
      ],
      [
        "a",
        "l"
      ],
      [
        "he",
        "r"
      ],
      [
        "i",
        "s"
      ],
      [
        "▁",
        "m"
      ],
      [
        "e",
        "n"
      ],
      [
        "\n",
        "\n"
      ],
      [
        "▁",
        "p"
      ],
      [
        "l",
        "e"
      ],
      [
        "▁w",
        "a"
      ],
      [
        "▁",
        "g"
      ],
      [
        "▁",
        "The"
      ],
      [
        "r",
        "i"
      ],
      [
        "r",
        "o"
      ],
      [
        "▁",
        "h"
      ],
      [
        "e",
        "s"
      ],
      [
        "i",
        "d"
      ],
      [
        "u",
        "t"
      ],
      [
        "l",
        "l"
      ],
      [
        "e",
        "t"
      ],
      [
        "r",
        "a"
      ],
      [
        "a",
        "r"
      ],
      [
        "▁",
        "\""
      ],
      [
        "a",
        "y"
      ],
      [
        "ha",
        "t"
      ],
      [
        "a",
        "t"
      ],
      [
        "▁",
        "n"
      ],
      [
        "▁s",
        "t"
      ],
      [
        "▁b",
        "e"
      ],
      [
        "▁",
        "he"
      ],
      [
        "a",
        "n"
      ],
      [
        ".",
        "\n\n"
      ],
      [
        "ha",
        "r"
      ],
      [
        "o",
        "w"
      ],
      [
        "l",
        "d"
      ],
      [
        "▁s",
        "a"
      ],
      [
        "▁t",
        "hat"
      ],
      [
        "v",
        "er"
      ],
      [
        "'",
        "s"
      ],
      [
        "▁wa",
        "s"
      ],
      [
        "\n",
        "<"
      ],
      [
        "▁",
        "<"
      ],
      [
        "▁o",
        "f"
      ],
      [
        "▁",
        "in"
      ],
      [
        "▁",
        "ha"
      ],
      [
        "v",
        "e"
      ],
      [
        "▁",
        "re"
      ],
      [
        "g",
        "h"
      ],
      [
        "o",
        "o"
      ],
      [
        "▁",
        "e"
      ],
      [
        "▁",
        "her"
      ],
      [
        "i",
        "r"
      ],
      [
        "▁",
        "it"
      ],
      [
        "▁",
        "k"
      ],
      [
        "l",
        "y"
      ],
      [
        "in",
        "d"
      ],
      [
        "▁o",
        "n"
      ],
      [
        "m",
        "e"
      ],
      [
        "▁l",
        "i"
      ],
      [
        "ea",
        "r"
      ],
      [
        "it",
        "h"
      ],
      [
        "▁",
        "S"
      ],
      [
        "▁t",
        "h"
      ],
      [
        "▁f",
        "or"
      ],
      [
        "e",
        "nd"
      ],
      [
        "▁w",
        "ith"
      ],
      [
        "▁",
        "y"
      ],
      [
        "c",
        "e"
      ],
      [
        "▁s",
        "he"
      ],
      [
        "m",
        "or"
      ],
      [
        "c",
        "k"
      ],
      [
        "u",
        "s"
      ],
      [
        "or",
        "y"
      ],
      [
        "ri",
        "end"
      ],
      [
        "t",
        "her"
      ],
      [
        "e",
        "l"
      ],
      [
        "gh",
        "t"
      ],
      [
        "▁f",
        "riend"
      ],
      [
        "▁y",
        "ou"
      ],
      [
        "u",
        "n"
      ],
      [
        "c",
        "har"
      ],
      [
        "▁d",
        "ay"
      ],
      [
        "k",
        "e"
      ],
      [
        "ed",
        ","
      ],
      [
        "s",
        "."
      ],
      [
        "st",
        "ory"
      ],
      [
        ">",
        "\n<"
      ],
      [
        "▁<",
        "/"
      ],
      [
        "mor",
        "al"
      ],
      [
        "story",
        ">"
      ],
      [
        "c",
        "h"
      ],
      [
        "i",
        "m"
      ],
      [
        "en",
        "t"
      ],
      [
        "▁",
        "I"
      ],
      [
        "l",
        "p"
      ],
      [
        "ro",
        "m"
      ],
      [
        "s",
        ","
      ],
      [
        "▁the",
        "y"
      ],
      [
        "o",
        "t"
      ],
      [
        "u",
        "r"
      ],
      [
        "▁w",
        "e"
      ],
      [
        ".",
        "\""
      ],
      [
        "p",
        "p"
      ],
      [
        "u",
        "l"
      ],
      [
        "▁he",
        "lp"
      ],
      [
        "▁o",
        "ther"
      ],
      [
        "v",
        "ed"
      ],
      [
        "▁a",
        "n"
      ],
      [
        "▁a",
        "s"
      ],
      [
        "k",
        "ed"
      ],
      [
        "g",
        "et"
      ],
      [
        "▁sa",
        "id"
      ],
      [
        "e",
        "c"
      ],
      [
        "get",
        "her"
      ],
      [
        "on",
        "g"
      ],
      [
        "▁s",
        "h"
      ],
      [
        "is",
        "e"
      ],
      [
        "r",
        "ou"
      ],
      [
        "▁b",
        "ut"
      ],
      [
        "▁w",
        "or"
      ],
      [
        "'",
        "t"
      ],
      [
        ".\n\n",
        "The"
      ],
      [
        "u",
        "re"
      ],
      [
        "▁n",
        "e"
      ],
      [
        "on",
        "e"
      ],
      [
        "▁c",
        "a"
      ],
      [
        "▁m",
        "a"
      ],
      [
        "▁w",
        "h"
      ],
      [
        "▁s",
        "o"
      ],
      [
        "▁s",
        "p"
      ],
      [
        "f",
        "ul"
      ],
      [
        "t",
        "er"
      ],
      [
        "▁",
        "j"
      ],
      [
        "▁",
        "ra"
      ],
      [
        "n",
        "e"
      ],
      [
        "r",
        "u"
      ],
      [
        "s",
        "e"
      ],
      [
        "\n\n",
        "The"
      ],
      [
        "▁S",
        "he"
      ],
      [
        "i",
        "ll"
      ],
      [
        "▁to",
        "gether"
      ],
      [
        "ou",
        "ld"
      ],
      [
        "a",
        "m"
      ],
      [
        "▁ha",
        "d"
      ],
      [
        "▁",
        "B"
      ],
      [
        "i",
        "c"
      ],
      [
        "▁l",
        "o"
      ],
      [
        "▁o",
        "w"
      ],
      [
        "▁",
        "H"
      ],
      [
        "▁m",
        "o"
      ],
      [
        "▁p",
        "l"
      ],
      [
        "i",
        "g"
      ],
      [
        "is",
        "h"
      ],
      [
        "i",
        "l"
      ],
      [
        "▁c",
        "an"
      ],
      [
        "a",
        "s"
      ],
      [
        "b",
        "b"
      ],
      [
        "▁c",
        "o"
      ],
      [
        "re",
        "at"
      ],
      [
        "O",
        "ne"
      ],
      [
        "▁said",
        ","
      ],
      [
        "g",
        "e"
      ],
      [
        "▁",
        "v"
      ],
      [
        "n",
        "'t"
      ],
      [
        "oo",
        "d"
      ],
      [
        "▁",
        "u"
      ],
      [
        "▁k",
        "ind"
      ],
      [
        "t",
        "ed"
      ],
      [
        "u",
        "st"
      ],
      [
        "▁s",
        "w"
      ],
      [
        "▁day",
        ","
      ],
      [
        "▁w",
        "he"
      ],
      [
        "i",
        "on"
      ],
      [
        "▁\"",
        "I"
      ],
      [
        "r",
        "y"
      ],
      [
        "▁friend",
        "s"
      ],
      [
        "e",
        "e"
      ],
      [
        "/",
        "story>"
      ],
      [
        "\n<",
        "/story>"
      ],
      [
        "▁<",
        "char"
      ],
      [
        "char",
        ">\n<"
      ],
      [
        ">\n<",
        "story>"
      ],
      [
        "▁</",
        "moral"
      ],
      [
        "▁</",
        "char>\n<"
      ],
      [
        "moral",
        ">"
      ],
      [
        "▁<char",
        ">"
      ],
      [
        ">\n<story>",
        "\n"
      ],
      [
        "▁</moral",
        ">\n<story>\n"
      ],
      [
        "▁</char>\n<",
        "moral>"
      ],
      [
        "▁w",
        "ise"
      ],
      [
        "▁ow",
        "l"
      ],
      [
        "bb",
        "it"
      ],
      [
        "r",
        "ong"
      ],
      [
        "▁t",
        "re"
      ],
      [
        "▁the",
        "ir"
      ],
      [
        "▁b",
        "ea"
      ],
      [
        "▁\"",
        "W"
      ],
      [
        "▁a",
        "ll"
      ],
      [
        "ver",
        "y"
      ],
      [
        "z",
        "ed"
      ],
      [
        "▁ra",
        "bbit"
      ],
      [
        "▁",
        "F"
      ],
      [
        "▁f",
        "l"
      ],
      [
        "m",
        "p"
      ],
      [
        "▁f",
        "ish"
      ],
      [
        "▁",
        "ea"
      ],
      [
        "t",
        "o"
      ],
      [
        "!",
        "\""
      ],
      [
        "ar",
        "d"
      ],
      [
        "ear",
        "n"
      ],
      [
        "▁f",
        "rom"
      ],
      [
        "es",
        "s"
      ],
      [
        "▁s",
        "m"
      ],
      [
        "▁h",
        "is"
      ],
      [
        "▁l",
        "a"
      ],
      [
        "ou",
        "s"
      ],
      [
        "▁",
        "W"
      ],
      [
        "▁n",
        "ot"
      ],
      [
        "he",
        "d"
      ],
      [
        "▁o",
        "ld"
      ],
      [
        "▁on",
        ","
      ],
      [
        "▁",
        "is"
      ],
      [
        "▁d",
        "id"
      ],
      [
        "▁",
        "A"
      ],
      [
        "s",
        "s"
      ],
      [
        "?",
        "\""
      ],
      [
        "ha",
        "n"
      ],
      [
        "i",
        "f"
      ],
      [
        "i",
        "zed"
      ],
      [
        "▁it",
        "s"
      ],
      [
        "▁d",
        "o"
      ],
      [
        "al",
        "l"
      ],
      [
        "u",
        "ll"
      ],
      [
        "ir",
        "d"
      ],
      [
        "c",
        "o"
      ],
      [
        "▁l",
        "earn"
      ],
      [
        "ed",
        "."
      ],
      [
        "p",
        "l"
      ],
      [
        "▁we",
        "re"
      ],
      [
        "d",
        "e"
      ],
      [
        "k",
        "ing"
      ],
      [
        "▁f",
        "o"
      ],
      [
        "n",
        "ow"
      ],
      [
        "ou",
        "t"
      ],
      [
        "▁st",
        "rong"
      ],
      [
        "q",
        "u"
      ],
      [
        "▁c",
        "reat"
      ],
      [
        "b",
        "le"
      ],
      [
        "▁re",
        "al"
      ],
      [
        "▁h",
        "o"
      ],
      [
        "▁s",
        "har"
      ],
      [
        "▁B",
        "ut"
      ],
      [
        "t",
        "le"
      ],
      [
        "▁s",
        "ea"
      ],
      [
        "▁u",
        "p"
      ],
      [
        ".\"",
        "\n\nThe"
      ],
      [
        "▁li",
        "ved"
      ],
      [
        "▁a",
        "t"
      ],
      [
        "I",
        "n"
      ],
      [
        "▁a",
        "b"
      ],
      [
        ".",
        "\n</story>"
      ],
      [
        "▁s",
        "un"
      ],
      [
        "er",
        "s"
      ],
      [
        "▁c",
        "l"
      ],
      [
        "▁l",
        "oo"
      ],
      [
        "n",
        "t"
      ],
      [
        "▁lo",
        "ved"
      ],
      [
        "ou",
        "ght"
      ],
      [
        "▁",
        "ro"
      ],
      [
        "w",
        "ay"
      ],
      [
        "u",
        "m"
      ],
      [
        "ar",
        "t"
      ],
      [
        "▁the",
        "m"
      ],
      [
        "a",
        "in"
      ],
      [
        "▁th",
        "ought"
      ],
      [
        "im",
        "al"
      ],
      [
        "▁an",
        "imal"
      ],
      [
        "▁The",
        "y"
      ],
      [
        "▁k",
        "now"
      ],
      [
        "▁real",
        "ized"
      ],
      [
        "▁ha",
        "pp"
      ],
      [
        "▁e",
        "x"
      ],
      [
        "▁did",
        "n't"
      ],
      [
        "▁s",
        "ha"
      ],
      [
        "▁f",
        "e"
      ],
      [
        "▁e",
        "very"
      ],
      [
        "▁b",
        "ird"
      ],
      [
        "▁wh",
        "o"
      ],
      [
        ".\n\n",
        "One"
      ],
      [
        "o",
        "l"
      ],
      [
        "l",
        "ed"
      ],
      [
        "▁H",
        "e"
      ],
      [
        "▁",
        "T"
      ],
      [
        "c",
        "a"
      ],
      [
        "▁a",
        "l"
      ],
      [
        "a",
        "d"
      ],
      [
        "▁w",
        "ould"
      ],
      [
        "▁creat",
        "ure"
      ],
      [
        "▁</moral>\n<story>\n",
        "In"
      ],
      [
        "▁learn",
        "ed"
      ],
      [
        "f",
        "e"
      ],
      [
        "h",
        "y"
      ],
      [
        "▁b",
        "y"
      ],
      [
        "v",
        "en"
      ],
      [
        "i",
        "le"
      ],
      [
        "▁h",
        "id"
      ],
      [
        "ro",
        "w"
      ],
      [
        "i",
        "e"
      ],
      [
        "a",
        "ke"
      ],
      [
        "▁bea",
        "ut"
      ],
      [
        "▁",
        "us"
      ],
      [
        "a",
        "nd"
      ],
      [
        "it",
        "y"
      ],
      [
        "▁ab",
        "out"
      ],
      [
        "c",
        "hed"
      ],
      [
        "▁d",
        "e"
      ],
      [
        "it",
        "tle"
      ],
      [
        ".\n\n",
        "A"
      ],
      [
        "▁to",
        "o"
      ],
      [
        "i",
        "ve"
      ],
      [
        "t",
        "h"
      ],
      [
        "ar",
        "k"
      ],
      [
        "Y",
        "ou"
      ],
      [
        "▁loo",
        "ked"
      ],
      [
        "ec",
        "t"
      ],
      [
        "▁animal",
        "s"
      ],
      [
        "nd",
        "er"
      ],
      [
        "▁j",
        "ust"
      ],
      [
        "▁b",
        "ig"
      ],
      [
        "st",
        "en"
      ],
      [
        "▁sm",
        "il"
      ],
      [
        "▁ne",
        "w"
      ],
      [
        "▁ea",
        "ch"
      ],
      [
        "'",
        "m"
      ],
      [
        "▁be",
        "ca"
      ],
      [
        "▁g",
        "re"
      ],
      [
        "▁pl",
        "ay"
      ],
      [
        "re",
        "t"
      ],
      [
        "ing",
        ","
      ],
      [
        "n",
        "ess"
      ],
      [
        "▁he",
        "art"
      ],
      [
        "▁o",
        "ut"
      ],
      [
        "▁f",
        "ind"
      ],
      [
        "▁s",
        "c"
      ],
      [
        "c",
        "t"
      ],
      [
        "▁whe",
        "re"
      ],
      [
        "ri",
        "ght"
      ],
      [
        "es",
        ","
      ],
      [
        "▁m",
        "e"
      ],
      [
        "a",
        "st"
      ],
      [
        "▁l",
        "ittle"
      ],
      [
        "l",
        "ing"
      ],
      [
        "▁li",
        "sten"
      ],
      [
        "o",
        "re"
      ],
      [
        "i",
        "ful"
      ],
      [
        "i",
        "st"
      ],
      [
        "▁",
        "G"
      ],
      [
        "as",
        "ure"
      ],
      [
        "▁o",
        "ver"
      ],
      [
        ",",
        "\""
      ],
      [
        "▁g",
        "ra"
      ],
      [
        "▁b",
        "u"
      ],
      [
        "▁tre",
        "asure"
      ],
      [
        "▁f",
        "ood"
      ],
      [
        "▁h",
        "im"
      ],
      [
        ".\n\nA",
        "s"
      ],
      [
        "▁beaut",
        "iful"
      ],
      [
        "▁w",
        "hat"
      ],
      [
        "▁sha",
        "re"
      ],
      [
        "▁ho",
        "me"
      ],
      [
        "▁as",
        "ked"
      ],
      [
        "▁",
        "C"
      ],
      [
        "▁s",
        "n"
      ],
      [
        "▁on",
        "e"
      ],
      [
        "▁b",
        "ra"
      ],
      [
        "ee",
        "p"
      ],
      [
        "'",
        "re"
      ],
      [
        "▁F",
        "rom"
      ],
      [
        "▁a",
        "g"
      ],
      [
        "▁l",
        "ea"
      ],
      [
        "▁mo",
        "re"
      ],
      [
        "▁wa",
        "t"
      ],
      [
        "i",
        "ght"
      ],
      [
        "▁sa",
        "w"
      ],
      [
        "▁ha",
        "ve"
      ],
      [
        "y",
        ","
      ],
      [
        "▁creature",
        "s"
      ],
      [
        "▁whe",
        "n"
      ],
      [
        "▁st",
        "or"
      ],
      [
        "▁",
        "har"
      ],
      [
        "▁wa",
        "ter"
      ],
      [
        "ent",
        "le"
      ],
      [
        "▁wor",
        "k"
      ],
      [
        "g",
        "an"
      ],
      [
        "▁d",
        "ec"
      ],
      [
        "▁m",
        "y"
      ],
      [
        "▁ex",
        "pl"
      ],
      [
        "ou",
        "nd"
      ],
      [
        "▁e",
        "ven"
      ],
      [
        "▁be",
        "ing"
      ],
      [
        "*",
        "*"
      ],
      [
        "▁together",
        ","
      ],
      [
        "ill",
        "a"
      ],
      [
        "el",
        "f"
      ],
      [
        "▁ma",
        "ke"
      ],
      [
        "▁fl",
        "ow"
      ],
      [
        "▁t",
        "ri"
      ],
      [
        "▁c",
        "on"
      ],
      [
        "▁li",
        "ke"
      ],
      [
        "i",
        "ck"
      ],
      [
        "▁a",
        "way"
      ],
      [
        "▁ma",
        "de"
      ],
      [
        "a",
        "k"
      ],
      [
        "▁",
        "One"
      ],
      [
        "m",
        "b"
      ],
      [
        "▁c",
        "ould"
      ],
      [
        "▁d",
        "is"
      ],
      [
        "f",
        "t"
      ],
      [
        "id",
        "ed"
      ],
      [
        "▁every",
        "one"
      ],
      [
        "▁g",
        "o"
      ],
      [
        "el",
        "t"
      ],
      [
        "es",
        "."
      ],
      [
        "▁happ",
        "y"
      ],
      [
        "▁fe",
        "el"
      ],
      [
        "er",
        "ed"
      ],
      [
        "e",
        "st"
      ],
      [
        "id",
        "e"
      ],
      [
        "▁e",
        "y"
      ],
      [
        "rou",
        "gh"
      ],
      [
        "▁b",
        "o"
      ],
      [
        "g",
        "er"
      ],
      [
        "ing",
        "s"
      ],
      [
        "▁be",
        "gan"
      ],
      [
        "▁w",
        "ind"
      ],
      [
        "▁f",
        "elt"
      ],
      [
        "▁t",
        "han"
      ],
      [
        "ea",
        "n"
      ],
      [
        "i",
        "ous"
      ],
      [
        "▁beca",
        "me"
      ],
      [
        "▁th",
        "rough"
      ],
      [
        "i",
        "ce"
      ],
      [
        "▁s",
        "ee"
      ],
      [
        "i",
        "p"
      ],
      [
        "▁st",
        "ar"
      ],
      [
        "▁t",
        "ru"
      ],
      [
        "▁sa",
        "d"
      ],
      [
        "▁fo",
        "x"
      ],
      [
        "▁n",
        "o"
      ],
      [
        "a",
        "ck"
      ],
      [
        "ro",
        "t"
      ],
      [
        "▁b",
        "l"
      ],
      [
        "a",
        "ce"
      ],
      [
        "▁c",
        "ha"
      ],
      [
        "▁wh",
        "ile"
      ],
      [
        "▁the",
        "n"
      ],
      [
        "an",
        "t"
      ],
      [
        "▁co",
        "l"
      ],
      [
        "▁wor",
        "ked"
      ],
      [
        "▁h",
        "ow"
      ],
      [
        "d",
        "en"
      ],
      [
        "ou",
        "d"
      ],
      [
        "rou",
        "nd"
      ],
      [
        "▁dec",
        "ided"
      ],
      [
        "o",
        "p"
      ],
      [
        "ow",
        "n"
      ],
      [
        "g",
        "u"
      ],
      [
        "▁\"W",
        "hy"
      ],
      [
        "▁",
        "en"
      ],
      [
        "▁t",
        "e"
      ],
      [
        "▁\"",
        "You"
      ],
      [
        "ch",
        "ing"
      ],
      [
        "i",
        "ld"
      ],
      [
        "▁",
        "un"
      ],
      [
        "er",
        ","
      ],
      [
        "u",
        "g"
      ],
      [
        "in",
        "y"
      ],
      [
        "on",
        "ke"
      ],
      [
        "▁I",
        "t"
      ],
      [
        "▁a",
        "re"
      ],
      [
        "e",
        "p"
      ],
      [
        "▁ca",
        "me"
      ],
      [
        "an",
        "ce"
      ],
      [
        "▁o",
        "ur"
      ],
      [
        "rou",
        "d"
      ],
      [
        "y",
        "."
      ],
      [
        "▁p",
        "er"
      ],
      [
        "▁hid",
        "den"
      ],
      [
        "▁c",
        "ra"
      ],
      [
        "▁th",
        "is"
      ],
      [
        "i",
        "v"
      ],
      [
        "▁j",
        "o"
      ],
      [
        "▁f",
        "i"
      ],
      [
        "▁v",
        "illa"
      ],
      [
        "B",
        "ut"
      ],
      [
        "▁ca",
        "re"
      ],
      [
        "▁u",
        "nder"
      ],
      [
        "▁",
        "qu"
      ],
      [
        "'",
        "ll"
      ],
      [
        "▁s",
        "ec"
      ],
      [
        "▁",
        "r"
      ],
      [
        "▁p",
        "at"
      ],
      [
        "▁ne",
        "ed"
      ],
      [
        "p",
        "us"
      ],
      [
        "▁you",
        "r"
      ],
      [
        "n",
        "g"
      ],
      [
        "o",
        "g"
      ],
      [
        "▁sp",
        "ark"
      ],
      [
        "▁d",
        "own"
      ],
      [
        "▁h",
        "one"
      ],
      [
        "on",
        "'t"
      ],
      [
        "▁wa",
        "nt"
      ],
      [
        "as",
        "s"
      ],
      [
        "onke",
        "y"
      ],
      [
        "▁kind",
        "ness"
      ],
      [
        "▁n",
        "ear"
      ],
      [
        "▁a",
        "pp"
      ],
      [
        "▁sw",
        "am"
      ],
      [
        "▁",
        "ru"
      ],
      [
        "▁s",
        "ur"
      ],
      [
        "▁bird",
        "s"
      ],
      [
        "in",
        "k"
      ],
      [
        "▁p",
        "roud"
      ],
      [
        "▁g",
        "l"
      ],
      [
        "b",
        "ra"
      ],
      [
        "▁be",
        "st"
      ],
      [
        "▁o",
        "c"
      ],
      [
        "it",
        "e"
      ],
      [
        "m",
        "et"
      ],
      [
        "f",
        "ly"
      ],
      [
        "▁bra",
        "ve"
      ],
      [
        "▁",
        "L"
      ],
      [
        "g",
        "ull"
      ],
      [
        "g",
        "le"
      ],
      [
        "▁wa",
        "y"
      ],
      [
        "m",
        "ent"
      ],
      [
        "▁a",
        "c"
      ],
      [
        "qu",
        "ir"
      ],
      [
        "▁t",
        "i"
      ],
      [
        "re",
        "l"
      ],
      [
        "▁\"W",
        "e"
      ],
      [
        "quir",
        "rel"
      ],
      [
        "▁stor",
        "m"
      ],
      [
        "▁a",
        "m"
      ],
      [
        "▁c",
        "he"
      ],
      [
        "s",
        "elf"
      ],
      [
        "h",
        "ing"
      ],
      [
        "ill",
        "ed"
      ],
      [
        "▁friend",
        "s."
      ],
      [
        "▁b",
        "ack"
      ],
      [
        "h",
        "ip"
      ],
      [
        "▁a",
        "r"
      ],
      [
        "e",
        ","
      ],
      [
        "▁in",
        "to"
      ],
      [
        "▁",
        "P"
      ],
      [
        "or",
        "to"
      ],
      [
        "ard",
        "en"
      ],
      [
        "▁h",
        "um"
      ],
      [
        "an",
        "g"
      ],
      [
        "▁shar",
        "ing"
      ],
      [
        "▁\"I",
        "'m"
      ],
      [
        "orto",
        "ise"
      ],
      [
        "o",
        "s"
      ],
      [
        "▁re",
        "s"
      ],
      [
        "o",
        "gether"
      ],
      [
        "▁",
        "ri"
      ],
      [
        "▁sea",
        "gull"
      ],
      [
        "▁so",
        "met"
      ],
      [
        "ogether",
        ","
      ],
      [
        "▁g",
        "arden"
      ],
      [
        "▁as",
        "k"
      ],
      [
        "▁f",
        "a"
      ],
      [
        "f",
        "f"
      ],
      [
        "▁other",
        "s"
      ],
      [
        "ea",
        "k"
      ],
      [
        "▁b",
        "right"
      ],
      [
        "n",
        "y"
      ],
      [
        "ur",
        "n"
      ],
      [
        "▁f",
        "illed"
      ],
      [
        "le",
        "ver"
      ],
      [
        "▁m",
        "ist"
      ],
      [
        "▁",
        "M"
      ],
      [
        "▁ey",
        "es"
      ],
      [
        "▁ti",
        "me"
      ],
      [
        "v",
        "es"
      ],
      [
        "i",
        "ly"
      ],
      [
        "m",
        "er"
      ],
      [
        ".\n\n",
        "\""
      ],
      [
        "▁friend",
        "s,"
      ],
      [
        "b",
        "y"
      ],
      [
        "▁sec",
        "ret"
      ],
      [
        "▁star",
        "ted"
      ],
      [
        "▁help",
        "ed"
      ],
      [
        "m",
        "ed"
      ],
      [
        "ou",
        "se"
      ],
      [
        "▁be",
        "en"
      ],
      [
        "▁g",
        "entle"
      ],
      [
        "c",
        "i"
      ],
      [
        "at",
        "her"
      ],
      [
        "▁c",
        "han"
      ],
      [
        "▁f",
        "ound"
      ],
      [
        ".\"",
        "\n\n"
      ],
      [
        "▁feel",
        "ing"
      ],
      [
        "ut",
        "h"
      ],
      [
        "▁c",
        "lever"
      ],
      [
        "is",
        "p"
      ],
      [
        "▁an",
        "y"
      ],
      [
        "▁c",
        "at"
      ],
      [
        "le",
        "w"
      ],
      [
        "F",
        "rom"
      ],
      [
        "m",
        "ing"
      ],
      [
        "ot",
        "h"
      ],
      [
        "u",
        "ck"
      ],
      [
        "▁ag",
        "ain"
      ],
      [
        "re",
        "e"
      ],
      [
        "▁friends",
        "hip"
      ],
      [
        "st",
        "er"
      ],
      [
        "▁",
        "R"
      ],
      [
        "h",
        "in"
      ],
      [
        "▁s",
        "quirrel"
      ],
      [
        "▁s",
        "ly"
      ],
      [
        "oo",
        "se"
      ],
      [
        "▁s",
        "k"
      ],
      [
        "le",
        "ss"
      ],
      [
        "▁g",
        "ather"
      ],
      [
        "▁sun",
        "ny"
      ],
      [
        "way",
        "s"
      ],
      [
        "▁ca",
        "ve"
      ],
      [
        "g",
        "ry"
      ],
      [
        "▁f",
        "ea"
      ],
      [
        "▁c",
        "ar"
      ],
      [
        "▁b",
        "et"
      ],
      [
        "▁al",
        "ways"
      ],
      [
        "▁cra",
        "b"
      ],
      [
        "▁t",
        "ortoise"
      ],
      [
        "t",
        "ing"
      ],
      [
        "er",
        "ri"
      ],
      [
        "▁W",
        "e"
      ],
      [
        "▁for",
        "g"
      ],
      [
        "e",
        "ck"
      ],
      [
        "▁",
        "D"
      ],
      [
        "▁g",
        "et"
      ],
      [
        "▁sh",
        "ow"
      ],
      [
        "▁smil",
        "ed,"
      ],
      [
        "▁d",
        "if"
      ],
      [
        "!\"",
        "\n\nThe"
      ],
      [
        "▁p",
        "ro"
      ],
      [
        "▁wa",
        "r"
      ],
      [
        "d",
        "d"
      ],
      [
        "▁pl",
        "ace"
      ],
      [
        "▁wh",
        "isp"
      ],
      [
        "ea",
        "l"
      ],
      [
        "▁lived",
        "."
      ],
      [
        "ea",
        "d"
      ],
      [
        "▁ro",
        "ck"
      ],
      [
        "i",
        "es"
      ],
      [
        "▁ne",
        "st"
      ],
      [
        "n",
        "ted"
      ],
      [
        "▁",
        "if"
      ],
      [
        "▁b",
        "ear"
      ],
      [
        "▁ma",
        "g"
      ],
      [
        "▁f",
        "am"
      ],
      [
        "▁l",
        "oud"
      ],
      [
        "▁I",
        "'m"
      ],
      [
        "▁s",
        "ay"
      ],
      [
        "▁A",
        "nd"
      ],
      [
        "d",
        "ge"
      ],
      [
        "▁sh",
        "iny"
      ],
      [
        "▁t",
        "r"
      ],
      [
        "z",
        "y"
      ],
      [
        "▁ow",
        "n"
      ],
      [
        "l",
        "ow"
      ],
      [
        "am",
        "ed"
      ],
      [
        "▁wa",
        "nted"
      ],
      [
        "▁tri",
        "ed"
      ],
      [
        "▁bea",
        "ver"
      ],
      [
        "ing",
        "."
      ],
      [
        "t",
        "e"
      ],
      [
        "▁",
        "O"
      ],
      [
        "or",
        "n"
      ],
      [
        "o",
        "m"
      ],
      [
        "▁shar",
        "ed"
      ],
      [
        "▁w",
        "ill"
      ],
      [
        "to",
        "pus"
      ],
      [
        "at",
        "e"
      ],
      [
        "d",
        "s"
      ],
      [
        "▁p",
        "rom"
      ],
      [
        "▁gre",
        "w"
      ],
      [
        "▁sa",
        "fe"
      ],
      [
        "▁t",
        "al"
      ],
      [
        "▁t",
        "ry"
      ],
      [
        "▁t",
        "w"
      ],
      [
        "pp",
        "ed"
      ],
      [
        "h",
        "is"
      ],
      [
        "▁m",
        "ean"
      ],
      [
        "▁f",
        "ear"
      ],
      [
        "▁te",
        "mp"
      ],
      [
        "▁help",
        "ing"
      ],
      [
        "le",
        "ct"
      ],
      [
        "e",
        "et"
      ],
      [
        "▁d",
        "on't"
      ],
      [
        "ly",
        ","
      ],
      [
        "▁of",
        "f"
      ],
      [
        "▁l",
        "e"
      ],
      [
        "▁g",
        "row"
      ],
      [
        "▁n",
        "ow"
      ],
      [
        "▁t",
        "ake"
      ],
      [
        "▁a",
        "p"
      ],
      [
        "▁b",
        "erri"
      ],
      [
        "▁A",
        "s"
      ],
      [
        "et",
        "'s"
      ],
      [
        "▁col",
        "or"
      ],
      [
        "▁but",
        "ter"
      ],
      [
        "▁sc",
        "ar"
      ],
      [
        "fe",
        "re"
      ],
      [
        "▁dif",
        "fere"
      ],
      [
        "▁sh",
        "ould"
      ],
      [
        "▁t",
        "a"
      ],
      [
        "▁k",
        "eep"
      ],
      [
        "▁tr",
        "uth"
      ],
      [
        "▁sn",
        "ake"
      ],
      [
        "▁smil",
        "ed"
      ],
      [
        "▁fam",
        "ily"
      ],
      [
        "▁p",
        "ass"
      ],
      [
        "▁f",
        "lew"
      ],
      [
        "▁under",
        "st"
      ],
      [
        "▁h",
        "ur"
      ],
      [
        "re",
        "st"
      ],
      [
        "he",
        "n"
      ],
      [
        "▁sm",
        "all"
      ],
      [
        "▁re",
        "pl"
      ],
      [
        "al",
        "m"
      ],
      [
        "c",
        "er"
      ],
      [
        "▁fea",
        "ther"
      ],
      [
        "▁c",
        "ou"
      ],
      [
        "e",
        "."
      ],
      [
        "▁b",
        "ad"
      ],
      [
        "ol",
        "og"
      ],
      [
        "▁b",
        "us"
      ],
      [
        "▁ap",
        "olog"
      ],
      [
        "▁somet",
        "hing"
      ],
      [
        "▁\"",
        "T"
      ],
      [
        "▁temp",
        "le"
      ],
      [
        "▁c",
        "h"
      ],
      [
        "in",
        "ed"
      ],
      [
        "?\"",
        "\n\nThe"
      ],
      [
        "▁har",
        "m"
      ],
      [
        "▁st",
        "re"
      ],
      [
        "▁oc",
        "topus"
      ],
      [
        "▁th",
        "ink"
      ],
      [
        "▁flow",
        "er"
      ],
      [
        "▁st",
        "o"
      ],
      [
        "▁h",
        "un"
      ],
      [
        "▁sp",
        "ot"
      ],
      [
        "me",
        "mb"
      ],
      [
        "us",
        "e"
      ],
      [
        "el",
        "ic"
      ],
      [
        "▁ne",
        "ver"
      ],
      [
        "▁g",
        "reat"
      ],
      [
        "i",
        "al"
      ],
      [
        "▁b",
        "r"
      ],
      [
        "▁j",
        "u"
      ],
      [
        "▁repl",
        "i"
      ],
      [
        "**",
        "The"
      ],
      [
        "a",
        "ble"
      ],
      [
        "▁wat",
        "ching"
      ],
      [
        "▁hone",
        "st"
      ],
      [
        "▁fo",
        "rest"
      ],
      [
        "co",
        "on"
      ],
      [
        "v",
        "ing"
      ],
      [
        "▁",
        "You"
      ],
      [
        "c",
        "coon"
      ],
      [
        "c",
        "es"
      ],
      [
        "▁m",
        "is"
      ],
      [
        "▁so",
        "me"
      ],
      [
        "un",
        "n"
      ],
      [
        "▁m",
        "onkey"
      ],
      [
        "▁bu",
        "ild"
      ],
      [
        "i",
        "ra"
      ],
      [
        "▁t",
        "ea"
      ],
      [
        "o",
        "ck"
      ],
      [
        "▁mo",
        "st"
      ],
      [
        "o",
        ","
      ],
      [
        "▁a",
        "round"
      ],
      [
        "t",
        "en"
      ],
      [
        "▁",
        "right"
      ],
      [
        "▁listen",
        "ed"
      ],
      [
        "▁near",
        "by"
      ],
      [
        "or",
        "t"
      ],
      [
        "s.",
        "\""
      ],
      [
        "▁a",
        "ct"
      ],
      [
        "▁T",
        "ogether,"
      ],
      [
        "▁t",
        "all"
      ],
      [
        "▁",
        "im"
      ],
      [
        "▁",
        "E"
      ],
      [
        "p",
        "r"
      ],
      [
        "▁ri",
        "ver"
      ],
      [
        "▁ra",
        "ccoon"
      ],
      [
        "▁f",
        "ly"
      ],
      [
        "▁said",
        "."
      ],
      [
        "▁c",
        "or"
      ],
      [
        "▁f",
        "ar"
      ],
      [
        "▁v",
        "al"
      ],
      [
        "ed",
        "y"
      ],
      [
        "▁har",
        "d"
      ],
      [
        "▁h",
        "i"
      ],
      [
        "u",
        "ri"
      ],
      [
        "▁butter",
        "fly"
      ],
      [
        "▁sw",
        "eet"
      ],
      [
        "u",
        "ght"
      ],
      [
        "er",
        "."
      ],
      [
        "▁d",
        "es"
      ],
      [
        "▁know",
        "n"
      ],
      [
        "▁go",
        "at"
      ],
      [
        "▁a",
        "f"
      ],
      [
        "▁so",
        "ft"
      ],
      [
        "▁</moral>\n<story>\n",
        "**The"
      ],
      [
        "▁p",
        "re"
      ],
      [
        "▁flow",
        "ers"
      ],
      [
        "co",
        "ver"
      ],
      [
        "p",
        "ect"
      ],
      [
        "▁d",
        "an"
      ],
      [
        "▁tru",
        "st"
      ],
      [
        "is",
        "ed"
      ],
      [
        "on",
        ","
      ],
      [
        "▁sur",
        "pr"
      ],
      [
        "s",
        "ide"
      ],
      [
        "rou",
        "p"
      ],
      [
        "▁al",
        "one"
      ],
      [
        "▁g",
        "roup"
      ],
      [
        "f",
        "ore"
      ],
      [
        "▁m",
        "ust"
      ],
      [
        "▁hur",
        "t"
      ],
      [
        "▁s",
        "e"
      ],
      [
        "y",
        "al"
      ],
      [
        "▁underst",
        "and"
      ],
      [
        "**",
        "\n\n"
      ],
      [
        "▁ma",
        "king"
      ],
      [
        "▁ask",
        "ed,"
      ],
      [
        "t",
        "y"
      ],
      [
        "if",
        "t"
      ],
      [
        "▁c",
        "row"
      ],
      [
        "▁re",
        "memb"
      ],
      [
        "▁gra",
        "ss"
      ],
      [
        "ic",
        "y"
      ],
      [
        ".\n\n",
        "From"
      ],
      [
        "ne",
        "w"
      ],
      [
        "▁war",
        "m"
      ],
      [
        "a",
        "w"
      ],
      [
        "z",
        "e"
      ],
      [
        "▁expl",
        "or"
      ],
      [
        "g",
        "g"
      ],
      [
        "o",
        "nd"
      ],
      [
        "▁am",
        "ong"
      ],
      [
        "▁o",
        "r"
      ],
      [
        "at",
        "ion"
      ],
      [
        "ep",
        "t"
      ],
      [
        "▁con",
        "f"
      ],
      [
        "▁v",
        "o"
      ],
      [
        "f",
        "ull"
      ],
      [
        "▁mo",
        "ment"
      ],
      [
        "▁n",
        "amed"
      ],
      [
        "▁pat",
        "h"
      ],
      [
        "▁c",
        "ri"
      ],
      [
        "▁k",
        "new"
      ],
      [
        "▁tri",
        "ck"
      ],
      [
        "h",
        "ind"
      ],
      [
        "▁im",
        "p"
      ],
      [
        "▁be",
        "hind"
      ],
      [
        "▁\"",
        "L"
      ],
      [
        "▁ea",
        "gle"
      ],
      [
        "in",
        "al"
      ],
      [
        "ec",
        "ial"
      ],
      [
        "▁qu",
        "ick"
      ],
      [
        "▁s",
        "ear"
      ],
      [
        "▁ca",
        "st"
      ],
      [
        "▁a",
        "d"
      ],
      [
        "h",
        "o"
      ],
      [
        "n",
        "es"
      ],
      [
        "p",
        "t"
      ],
      [
        "ur",
        "tle"
      ],
      [
        "e",
        "f"
      ],
      [
        "▁p",
        "ea"
      ],
      [
        "▁d",
        "eep"
      ],
      [
        "▁re",
        "f"
      ],
      [
        "▁jo",
        "y"
      ],
      [
        "▁w",
        "al"
      ],
      [
        "▁know",
        "ing"
      ],
      [
        "▁harm",
        "on"
      ],
      [
        "▁apolog",
        "ized"
      ],
      [
        "▁c",
        "alm"
      ],
      [
        "ic",
        "al"
      ],
      [
        "▁villa",
        "ge"
      ],
      [
        "▁bad",
        "ger"
      ],
      [
        "▁f",
        "ro"
      ],
      [
        "ra",
        "ve"
      ],
      [
        "it",
        "ed"
      ],
      [
        "▁sp",
        "ecial"
      ],
      [
        "▁re",
        "t"
      ],
      [
        "y",
        "b"
      ],
      [
        "▁st",
        "ood"
      ],
      [
        "▁dis",
        "cover"
      ],
      [
        "▁s",
        "ing"
      ],
      [
        "ul",
        "t"
      ],
      [
        "c",
        "ed"
      ],
      [
        "▁repli",
        "ed,"
      ],
      [
        "▁l",
        "ong"
      ],
      [
        "re",
        "ss"
      ],
      [
        "▁be",
        "l"
      ],
      [
        "▁la",
        "nd"
      ],
      [
        "▁f",
        "ast"
      ],
      [
        "▁care",
        "full"
      ],
      [
        "▁lo",
        "ve"
      ],
      [
        "▁feather",
        "s"
      ],
      [
        "▁s",
        "or"
      ],
      [
        "ig",
        "n"
      ],
      [
        "oo",
        "k"
      ],
      [
        "l",
        "and"
      ],
      [
        "in",
        "e"
      ],
      [
        "J",
        "ust"
      ],
      [
        "▁lea",
        "d"
      ],
      [
        "▁sea",
        "l"
      ],
      [
        "▁th",
        "ings"
      ],
      [
        "g",
        "ers"
      ],
      [
        "w",
        "e"
      ],
      [
        "▁m",
        "et"
      ],
      [
        "▁spark",
        "ling"
      ],
      [
        "▁wat",
        "ched"
      ],
      [
        "o",
        "se"
      ],
      [
        "▁villa",
        "gers"
      ],
      [
        "k",
        "en"
      ],
      [
        "▁friend",
        "ly"
      ],
      [
        "▁ret",
        "urn"
      ],
      [
        "▁be",
        "fore"
      ],
      [
        "▁sw",
        "im"
      ],
      [
        "er",
        "m"
      ],
      [
        "hat",
        "'s"
      ],
      [
        "▁pea",
        "ce"
      ],
      [
        "▁vo",
        "ice"
      ],
      [
        "ly",
        "."
      ],
      [
        "▁away",
        ","
      ],
      [
        "le",
        "s"
      ],
      [
        "um",
        "b"
      ],
      [
        "▁m",
        "an"
      ],
      [
        "oo",
        "p"
      ],
      [
        "en",
        "gu"
      ],
      [
        "engu",
        "in"
      ],
      [
        "▁on",
        "ly"
      ],
      [
        "▁T",
        "his"
      ],
      [
        "▁b",
        "oth"
      ],
      [
        "▁c",
        "ry"
      ],
      [
        "▁us",
        "ed"
      ],
      [
        "▁color",
        "ful"
      ],
      [
        "▁c",
        "ro"
      ],
      [
        "O",
        "n"
      ],
      [
        "▁tru",
        "e"
      ],
      [
        "s",
        "ed"
      ],
      [
        "▁co",
        "zy"
      ],
      [
        "▁",
        "id"
      ],
      [
        "▁other",
        ","
      ],
      [
        "▁des",
        "er"
      ],
      [
        "r",
        "us"
      ],
      [
        "▁try",
        "ing"
      ],
      [
        "re",
        "ad"
      ],
      [
        "▁w",
        "ood"
      ],
      [
        "en",
        "ce"
      ],
      [
        "▁col",
        "lect"
      ],
      [
        "▁bus",
        "y"
      ],
      [
        "en",
        "er"
      ],
      [
        "i",
        "ent"
      ],
      [
        "▁sor",
        "ry"
      ],
      [
        "▁f",
        "ru"
      ],
      [
        "▁bet",
        "ter"
      ],
      [
        "▁g",
        "ent"
      ],
      [
        "▁m",
        "ouse"
      ],
      [
        "▁expl",
        "ain"
      ],
      [
        "▁berri",
        "es"
      ],
      [
        "▁together",
        "."
      ],
      [
        "▁\"",
        "But"
      ],
      [
        "▁",
        "–"
      ],
      [
        "▁co",
        "mp"
      ],
      [
        "▁help",
        "."
      ],
      [
        "▁I",
        "'ll"
      ],
      [
        "ion",
        "s"
      ],
      [
        "rot",
        "ect"
      ],
      [
        "▁expl",
        "ore"
      ],
      [
        "▁t",
        "urtle"
      ],
      [
        "a",
        "ched"
      ],
      [
        "s",
        "h"
      ],
      [
        "▁she",
        "ll"
      ],
      [
        "▁no",
        "dd"
      ],
      [
        "▁G",
        "entle"
      ],
      [
        "▁g",
        "u"
      ],
      [
        "▁co",
        "m"
      ],
      [
        "rou",
        "ble"
      ],
      [
        "▁li",
        "ght"
      ],
      [
        "▁g",
        "ood"
      ],
      [
        "umb",
        "led"
      ],
      [
        "▁f",
        "ir"
      ],
      [
        "▁S",
        "t"
      ],
      [
        "▁b",
        "en"
      ],
      [
        "▁too",
        "k"
      ],
      [
        "▁wor",
        "ds"
      ],
      [
        "▁B",
        "rave"
      ],
      [
        "d",
        "om"
      ],
      [
        "▁p",
        "enguin"
      ],
      [
        "co",
        "me"
      ],
      [
        "e",
        "ll"
      ],
      [
        "id",
        "er"
      ],
      [
        "▁ex",
        "c"
      ],
      [
        "▁id",
        "ea"
      ],
      [
        "▁pass",
        "ed,"
      ],
      [
        "▁t",
        "ra"
      ],
      [
        "▁thought",
        ","
      ],
      [
        "▁tw",
        "o"
      ],
      [
        "▁\"You",
        "'re"
      ],
      [
        "us",
        "ed"
      ],
      [
        "▁big",
        ","
      ],
      [
        "▁c",
        "uri"
      ],
      [
        "▁w",
        "rong"
      ],
      [
        "▁",
        "very"
      ],
      [
        "▁gre",
        "en"
      ],
      [
        "ar",
        "rot"
      ],
      [
        "▁\"",
        "The"
      ],
      [
        "ch",
        "ie"
      ],
      [
        "▁st",
        "ru"
      ],
      [
        "▁strong",
        "er"
      ],
      [
        "▁cast",
        "le"
      ],
      [
        "▁bl",
        "oo"
      ],
      [
        "▁ag",
        "re"
      ],
      [
        "▁res",
        "pect"
      ],
      [
        "s.",
        "\n</story>"
      ],
      [
        "▁s",
        "ong"
      ],
      [
        "▁it",
        "'s"
      ],
      [
        "oo",
        "l"
      ],
      [
        "▁whisp",
        "ered"
      ],
      [
        "▁wat",
        "ch"
      ],
      [
        "▁he",
        "re"
      ],
      [
        "▁tre",
        "es"
      ],
      [
        "▁up",
        "on"
      ],
      [
        "▁beca",
        "use"
      ],
      [
        "▁p",
        "e"
      ],
      [
        "▁t",
        "rouble"
      ],
      [
        "▁day",
        "s"
      ],
      [
        "s",
        "o"
      ],
      [
        "▁s",
        "u"
      ],
      [
        "pp",
        "er"
      ],
      [
        "▁rabbit",
        "s"
      ],
      [
        "▁wor",
        "king"
      ],
      [
        "▁an",
        "gry"
      ],
      [
        "▁d",
        "uck"
      ],
      [
        "b",
        "ird"
      ],
      [
        "il",
        "t"
      ],
      [
        "ol",
        "f"
      ],
      [
        "c",
        "on"
      ],
      [
        "▁pl",
        "at"
      ],
      [
        "▁an",
        "t"
      ],
      [
        "ic",
        "ed"
      ],
      [
        "▁g",
        "ru"
      ],
      [
        "g",
        "o"
      ],
      [
        "▁st",
        "umbled"
      ],
      [
        "g",
        "ed"
      ],
      [
        "▁g",
        "ot"
      ],
      [
        "▁rememb",
        "ered"
      ],
      [
        "▁sc",
        "or"
      ],
      [
        "▁chan",
        "ge"
      ],
      [
        "▁br",
        "ing"
      ],
      [
        "▁p",
        "arrot"
      ],
      [
        "▁p",
        "rotect"
      ],
      [
        "▁be",
        "et"
      ],
      [
        "▁cat",
        "ch"
      ],
      [
        "iv",
        "al"
      ],
      [
        "▁w",
        "is"
      ],
      [
        "▁fro",
        "g"
      ],
      [
        "o",
        "ve"
      ],
      [
        "ng",
        "th"
      ],
      [
        "▁of",
        "ten"
      ],
      [
        "im",
        "mer"
      ],
      [
        "▁m",
        "u"
      ],
      [
        "▁so",
        "on"
      ],
      [
        "▁could",
        "n't"
      ],
      [
        "▁e",
        "mp"
      ],
      [
        "▁beet",
        "le"
      ],
      [
        "▁would",
        "n't"
      ],
      [
        "▁f",
        "al"
      ],
      [
        "▁l",
        "ess"
      ],
      [
        "▁st",
        "on"
      ],
      [
        "▁f",
        "ur"
      ],
      [
        "▁her",
        "self"
      ],
      [
        "▁stre",
        "ngth"
      ],
      [
        "▁w",
        "ings"
      ],
      [
        "▁\"",
        "H"
      ],
      [
        "▁sp",
        "ider"
      ],
      [
        "▁sh",
        "one"
      ],
      [
        "▁li",
        "on"
      ],
      [
        "v",
        "ent"
      ],
      [
        "▁con",
        "t"
      ],
      [
        "a",
        "ve"
      ],
      [
        "l",
        "i"
      ],
      [
        "▁sa",
        "nd"
      ],
      [
        ".\n\n",
        "But"
      ],
      [
        "ming",
        "bird"
      ],
      [
        "▁to",
        "ld"
      ],
      [
        "▁g",
        "ive"
      ],
      [
        "▁carefull",
        "y"
      ],
      [
        "▁wor",
        "m"
      ],
      [
        "if",
        "f"
      ],
      [
        "▁c",
        "ru"
      ],
      [
        "b",
        "in"
      ],
      [
        "▁b",
        "ri"
      ],
      [
        "▁c",
        "e"
      ],
      [
        "ug",
        "hed"
      ],
      [
        "▁la",
        "ughed"
      ],
      [
        "v",
        "y"
      ],
      [
        "▁play",
        "ing"
      ],
      [
        "▁lo",
        "st"
      ],
      [
        "▁st",
        "ory"
      ],
      [
        "▁b",
        "ro"
      ],
      [
        "▁per",
        "ched"
      ],
      [
        "st",
        "al"
      ],
      [
        "▁sw",
        "an"
      ],
      [
        "▁p",
        "ol"
      ],
      [
        "ri",
        "mp"
      ],
      [
        "▁fru",
        "it"
      ],
      [
        "▁sp",
        "read"
      ],
      [
        "in",
        "king"
      ],
      [
        "▁ta",
        "king"
      ],
      [
        "ou",
        "r"
      ],
      [
        "▁not",
        "iced"
      ],
      [
        "ge",
        "st"
      ],
      [
        "▁b",
        "ull"
      ],
      [
        "p",
        "en"
      ],
      [
        "▁shar",
        "k"
      ],
      [
        "▁k",
        "n"
      ],
      [
        "▁fi",
        "re"
      ],
      [
        "▁shar",
        "p"
      ],
      [
        "!\"",
        "\n\n"
      ],
      [
        "▁t",
        "urn"
      ],
      [
        "▁w",
        "all"
      ],
      [
        "ou",
        "gh"
      ],
      [
        "w",
        "k"
      ],
      [
        "▁fir",
        "st"
      ],
      [
        "▁on",
        "ce"
      ],
      [
        "▁pl",
        "an"
      ],
      [
        "▁for",
        "t"
      ],
      [
        "ck",
        "et"
      ],
      [
        "or",
        "se"
      ],
      [
        "ou",
        "nt"
      ],
      [
        "▁H",
        "er"
      ],
      [
        "▁gre",
        "edy"
      ],
      [
        "▁cry",
        "stal"
      ],
      [
        "w",
        "ard"
      ],
      [
        "▁cl",
        "oud"
      ],
      [
        "▁ha",
        "wk"
      ],
      [
        "lp",
        "hin"
      ],
      [
        "a",
        "pp"
      ],
      [
        "k",
        "es"
      ],
      [
        "▁owl",
        ","
      ],
      [
        "▁discover",
        "ed"
      ],
      [
        "le",
        "bra"
      ],
      [
        "st",
        "ead"
      ],
      [
        "ra",
        "n"
      ],
      [
        "▁e",
        "ver"
      ],
      [
        "▁so",
        "l"
      ],
      [
        "▁tre",
        "e"
      ],
      [
        "▁g",
        "ener"
      ],
      [
        "▁fi",
        "x"
      ],
      [
        "d",
        "ile"
      ],
      [
        "co",
        "dile"
      ],
      [
        "a",
        "ge"
      ],
      [
        "▁ce",
        "lebra"
      ],
      [
        "▁re",
        "b"
      ],
      [
        "ie",
        "ld"
      ],
      [
        "▁ra",
        "in"
      ],
      [
        "er",
        "ce"
      ],
      [
        "▁kind",
        "nes"
      ],
      [
        "am",
        "ing"
      ],
      [
        "e",
        "er"
      ],
      [
        "▁W",
        "hen"
      ],
      [
        "▁her",
        "."
      ],
      [
        "▁y",
        "ak"
      ],
      [
        "p",
        "ie"
      ],
      [
        "▁was",
        "n't"
      ],
      [
        "▁o",
        "b"
      ],
      [
        "▁s",
        "in"
      ],
      [
        "as",
        "k"
      ],
      [
        "▁g",
        "oose"
      ],
      [
        "▁s",
        "et"
      ],
      [
        "▁w",
        "ent"
      ],
      [
        "p",
        "ion"
      ],
      [
        "▁</moral>\n<story>\n",
        "On"
      ],
      [
        "▁te",
        "ll"
      ],
      [
        "ld",
        "en"
      ],
      [
        "▁hun",
        "gry"
      ],
      [
        "▁o",
        "pen"
      ],
      [
        "▁b",
        "at"
      ],
      [
        "▁oc",
        "ean"
      ],
      [
        "p",
        "eck"
      ],
      [
        "▁hum",
        "ble"
      ],
      [
        "▁la",
        "go"
      ],
      [
        "▁ju",
        "icy"
      ],
      [
        "▁v",
        "is"
      ],
      [
        "▁fl",
        "o"
      ],
      [
        "e",
        "ver"
      ],
      [
        "▁val",
        "u"
      ],
      [
        "ll",
        "ow"
      ],
      [
        "mor",
        "ant"
      ],
      [
        "▁differe",
        "nt"
      ],
      [
        "▁differe",
        "n"
      ],
      [
        "▁al",
        "so"
      ],
      [
        "▁kn",
        "ock"
      ],
      [
        "▁s",
        "ide"
      ],
      [
        "ig",
        "er"
      ],
      [
        "ri",
        "ed"
      ],
      [
        "f",
        "ect"
      ],
      [
        "▁came",
        "l"
      ],
      [
        "▁gent",
        "ly"
      ],
      [
        "ard",
        "inal"
      ],
      [
        "er",
        "ret"
      ],
      [
        "h",
        "og"
      ],
      [
        "or",
        "illa"
      ],
      [
        "▁treasure",
        "s"
      ],
      [
        "▁say",
        "ing,"
      ],
      [
        "▁th",
        "inking"
      ],
      [
        ".\n\n\"",
        "W"
      ],
      [
        "▁stru",
        "gg"
      ],
      [
        "▁man",
        "y"
      ],
      [
        "▁ro",
        "bin"
      ],
      [
        "is",
        "her"
      ],
      [
        "▁gra",
        "te"
      ],
      [
        "▁mis",
        "chie"
      ],
      [
        "▁mist",
        "ak"
      ],
      [
        "ra",
        "ng"
      ],
      [
        "f",
        "fe"
      ],
      [
        "ira",
        "ffe"
      ],
      [
        "▁re",
        "ef"
      ],
      [
        "▁friend",
        ","
      ],
      [
        "▁the",
        "re"
      ],
      [
        "x",
        "t"
      ],
      [
        "unn",
        "ing"
      ],
      [
        "▁w",
        "o"
      ],
      [
        "▁m",
        "oose"
      ],
      [
        "▁s",
        "ure"
      ],
      [
        "o",
        "al"
      ],
      [
        "▁do",
        "lphin"
      ],
      [
        "▁w",
        "olf"
      ],
      [
        "▁de",
        "er"
      ],
      [
        "▁you",
        "'re"
      ],
      [
        "ble",
        "m"
      ],
      [
        "th",
        "ing"
      ],
      [
        "▁ma",
        "kes"
      ],
      [
        "il",
        "ity"
      ],
      [
        "y",
        "pus"
      ],
      [
        "▁pro",
        "blem"
      ],
      [
        "i",
        "ble"
      ],
      [
        "▁as",
        "ha"
      ],
      [
        "▁sh",
        "rimp"
      ],
      [
        "▁wal",
        "rus"
      ],
      [
        "▁gru",
        "mp"
      ],
      [
        "st",
        "ri"
      ],
      [
        "▁ar",
        "gu"
      ],
      [
        "oal",
        "a"
      ],
      [
        "▁gather",
        "ed"
      ],
      [
        "▁mist",
        "ake"
      ],
      [
        "▁explain",
        "ed"
      ],
      [
        "▁grate",
        "ful"
      ],
      [
        "▁scar",
        "ed"
      ],
      [
        "▁fi",
        "erce"
      ],
      [
        "▁ro",
        "o"
      ],
      [
        "v",
        "ous"
      ],
      [
        "▁",
        "K"
      ],
      [
        "▁st",
        "ill"
      ],
      [
        "ff",
        "al"
      ],
      [
        "▁app",
        "ro"
      ],
      [
        "▁less",
        "on"
      ],
      [
        "▁f",
        "ield"
      ],
      [
        "ult",
        "ure"
      ],
      [
        "stri",
        "ch"
      ],
      [
        "▁harmon",
        "y"
      ],
      [
        "▁be",
        "e"
      ],
      [
        "ho",
        "pper"
      ],
      [
        "▁d",
        "ark"
      ],
      [
        "▁bo",
        "ar"
      ],
      [
        "isher",
        "m"
      ],
      [
        "▁ab",
        "ove"
      ],
      [
        "▁fal",
        "con"
      ],
      [
        "'",
        "d"
      ],
      [
        "▁then",
        ","
      ],
      [
        "op",
        "ard"
      ],
      [
        "▁m",
        "ight"
      ],
      [
        "▁k",
        "ept"
      ],
      [
        "▁prom",
        "ised"
      ],
      [
        "▁p",
        "ig"
      ],
      [
        "▁p",
        "ers"
      ],
      [
        "▁hum",
        "mingbird"
      ],
      [
        "▁a",
        "ir"
      ],
      [
        "▁p",
        "ri"
      ],
      [
        "▁rabbit",
        ","
      ],
      [
        "i",
        "et"
      ],
      [
        "▁cro",
        "codile"
      ],
      [
        "▁is",
        "land"
      ],
      [
        "▁mag",
        "pie"
      ],
      [
        "▁f",
        "erret"
      ],
      [
        "en",
        "a"
      ],
      [
        "▁l",
        "et"
      ],
      [
        "▁c",
        "ardinal"
      ],
      [
        "▁help",
        ","
      ],
      [
        "▁com",
        "m"
      ],
      [
        "▁curi",
        "ous"
      ],
      [
        "▁do",
        "g"
      ],
      [
        "er",
        "ed,"
      ],
      [
        "▁d",
        "onkey"
      ],
      [
        "▁fa",
        "ir"
      ],
      [
        "▁her",
        ","
      ],
      [
        "a",
        "h"
      ],
      [
        "▁g",
        "orilla"
      ],
      [
        "y",
        "ena"
      ],
      [
        "eak",
        "y"
      ],
      [
        "▁\"L",
        "et's"
      ],
      [
        "peck",
        "er"
      ],
      [
        "elic",
        "an"
      ],
      [
        "▁home",
        "."
      ],
      [
        "hin",
        "o"
      ],
      [
        "al",
        "ly"
      ],
      [
        "▁scor",
        "pion"
      ],
      [
        "▁re",
        "st"
      ],
      [
        "▁cor",
        "morant"
      ],
      [
        "ha",
        "le"
      ],
      [
        "▁h",
        "orse"
      ],
      [
        "▁p",
        "o"
      ],
      [
        "▁time",
        ","
      ],
      [
        "▁g",
        "iraffe"
      ],
      [
        "▁cri",
        "cket"
      ],
      [
        "ind",
        "eer"
      ],
      [
        "ffal",
        "o"
      ],
      [
        "j",
        "o"
      ],
      [
        "▁p",
        "ow"
      ],
      [
        "▁\"",
        "A"
      ],
      [
        "▁S",
        "w"
      ],
      [
        "▁d",
        "elic"
      ],
      [
        "se",
        "ver"
      ],
      [
        "f",
        "ish"
      ],
      [
        "um",
        "a"
      ],
      [
        "▁de",
        "st"
      ],
      [
        "ass",
        "ion"
      ],
      [
        "ut",
        "an"
      ],
      [
        "rang",
        "utan"
      ],
      [
        "▁mo",
        "le"
      ],
      [
        "▁he",
        "dge"
      ],
      [
        "a",
        "gu"
      ],
      [
        "▁fish",
        ","
      ],
      [
        "▁hedge",
        "hog"
      ],
      [
        "▁st",
        "ay"
      ],
      [
        "h",
        "ouse"
      ],
      [
        "▁en",
        "ough"
      ],
      [
        "ever",
        ","
      ],
      [
        "▁ne",
        "xt"
      ],
      [
        "▁bo",
        "ast"
      ],
      [
        "agu",
        "ar"
      ],
      [
        "l",
        "ed,"
      ],
      [
        "▁tal",
        "k"
      ],
      [
        "ount",
        "ain"
      ],
      [
        "▁it",
        "."
      ],
      [
        "et",
        "ah"
      ],
      [
        "un",
        "k"
      ],
      [
        "ro",
        "ve"
      ],
      [
        "▁up",
        ","
      ],
      [
        "f",
        "all"
      ],
      [
        "▁she",
        "ep"
      ],
      [
        "▁I",
        "n"
      ],
      [
        "▁plat",
        "ypus"
      ],
      [
        "▁",
        "N"
      ],
      [
        "▁spot",
        "ted"
      ],
      [
        "▁b",
        "ask"
      ],
      [
        "aming",
        "o"
      ],
      [
        "▁f",
        "isherm"
      ],
      [
        "T",
        "ogether,"
      ],
      [
        "▁ha",
        "re"
      ],
      [
        "▁down",
        ","
      ],
      [
        "▁bra",
        "n"
      ],
      [
        "▁wh",
        "y"
      ],
      [
        "iv",
        "ing"
      ],
      [
        "▁s",
        "now"
      ],
      [
        "▁hid",
        "e"
      ],
      [
        "▁f",
        "ight"
      ],
      [
        "▁other",
        "s,"
      ],
      [
        "or",
        "al"
      ],
      [
        "immer",
        "ing"
      ],
      [
        "▁t",
        "iger"
      ],
      [
        "b",
        "ster"
      ],
      [
        "ot",
        "am"
      ],
      [
        "op",
        "otam"
      ],
      [
        "opotam",
        "us"
      ],
      [
        "pp",
        "opotamus"
      ],
      [
        "▁than",
        "ked"
      ],
      [
        "hino",
        "cer"
      ],
      [
        "▁\"",
        "N"
      ],
      [
        "▁bel",
        "ie"
      ],
      [
        "in",
        "es"
      ],
      [
        "▁k",
        "oala"
      ],
      [
        "▁m",
        "ark"
      ],
      [
        "ce",
        "pt"
      ],
      [
        "▁bri",
        "dge"
      ],
      [
        "▁qu",
        "iet"
      ],
      [
        "a",
        "ro"
      ],
      [
        "os",
        "ity"
      ],
      [
        "ang",
        "aro"
      ],
      [
        "▁le",
        "opard"
      ],
      [
        "▁mischie",
        "vous"
      ],
      [
        "▁cl",
        "iff"
      ],
      [
        "▁per",
        "fect"
      ],
      [
        "▁",
        "ze"
      ],
      [
        "▁ze",
        "bra"
      ],
      [
        "▁ho",
        "m"
      ],
      [
        "▁sw",
        "ay"
      ],
      [
        "▁o",
        "strich"
      ],
      [
        "▁o",
        "rangutan"
      ],
      [
        "▁n",
        "ight"
      ],
      [
        "rou",
        "ght"
      ],
      [
        "a",
        "re"
      ],
      [
        "l",
        "ight"
      ],
      [
        "▁grump",
        "y"
      ],
      [
        "▁grass",
        "hopper"
      ],
      [
        "jo",
        "y"
      ],
      [
        "ead",
        "ow"
      ],
      [
        "eck",
        "o"
      ],
      [
        "▁deser",
        "t"
      ],
      [
        "ed",
        "s"
      ],
      [
        "▁appro",
        "ached"
      ],
      [
        "▁m",
        "oth"
      ],
      [
        "▁f",
        "ull"
      ],
      [
        "▁bu",
        "ffalo"
      ],
      [
        "▁swam",
        "p"
      ],
      [
        "oop",
        "er"
      ],
      [
        "us",
        "h"
      ],
      [
        "**\n\n",
        "In"
      ],
      [
        "▁wis",
        "dom"
      ],
      [
        "▁le",
        "ft"
      ],
      [
        "▁re",
        "indeer"
      ],
      [
        "▁ac",
        "c"
      ],
      [
        "b",
        "e"
      ],
      [
        "▁bask",
        "et"
      ],
      [
        "▁away",
        "."
      ],
      [
        "▁sh",
        "immering"
      ],
      [
        "▁wood",
        "pecker"
      ],
      [
        "▁hi",
        "gh"
      ],
      [
        "▁s",
        "ang"
      ],
      [
        "un",
        "ity"
      ],
      [
        "▁p",
        "uma"
      ],
      [
        "▁mag",
        "ical"
      ],
      [
        "▁stor",
        "k"
      ],
      [
        "c",
        "he"
      ],
      [
        "▁j",
        "aguar"
      ],
      [
        "▁ea",
        "t"
      ],
      [
        "ft",
        "y"
      ],
      [
        "z",
        "ing"
      ],
      [
        "▁ad",
        "m"
      ],
      [
        "▁S",
        "n"
      ],
      [
        "▁hi",
        "ppopotamus"
      ],
      [
        "▁de",
        "ce"
      ],
      [
        "angaro",
        "o"
      ],
      [
        "s",
        "ing"
      ],
      [
        "ra",
        "id"
      ],
      [
        "▁p",
        "elican"
      ],
      [
        "▁beaut",
        "y"
      ],
      [
        "▁m",
        "eadow"
      ],
      [
        "▁roo",
        "ster"
      ],
      [
        "▁fire",
        "fly"
      ],
      [
        "▁v",
        "ulture"
      ],
      [
        "▁mu",
        "ch"
      ],
      [
        "▁s",
        "elf"
      ],
      [
        "▁af",
        "raid"
      ],
      [
        "▁can",
        "'t"
      ],
      [
        "ll",
        "en"
      ],
      [
        "a",
        "id"
      ],
      [
        "▁lo",
        "yal"
      ],
      [
        "▁\"",
        "S"
      ],
      [
        "▁strong",
        "est"
      ],
      [
        "▁hid",
        "ing"
      ],
      [
        "▁in",
        ","
      ],
      [
        "me",
        "le"
      ],
      [
        "▁wo",
        "nder"
      ],
      [
        "▁h",
        "yena"
      ],
      [
        "hinocer",
        "os"
      ],
      [
        "▁play",
        "ed"
      ],
      [
        "▁w",
        "hale"
      ],
      [
        "▁che",
        "etah"
      ],
      [
        "▁d",
        "i"
      ],
      [
        "s",
        "it"
      ],
      [
        "led",
        "ge"
      ],
      [
        "▁he",
        "a"
      ],
      [
        "▁sto",
        "at"
      ],
      [
        "▁honest",
        "y"
      ],
      [
        "er",
        "ful"
      ],
      [
        "▁re",
        "m"
      ],
      [
        "▁s",
        "en"
      ],
      [
        "de",
        "st"
      ],
      [
        "▁d",
        "ig"
      ],
      [
        "▁go",
        "lden"
      ],
      [
        "ea",
        "th"
      ],
      [
        "in",
        "u"
      ],
      [
        "▁cont",
        "inu"
      ],
      [
        "▁he",
        "sit"
      ],
      [
        "▁t",
        "iny"
      ],
      [
        "▁\"W",
        "hat"
      ],
      [
        "▁am",
        "a"
      ],
      [
        "▁in",
        "stead"
      ],
      [
        "▁pat",
        "ient"
      ],
      [
        "▁mark",
        "et"
      ],
      [
        "a",
        "im"
      ],
      [
        "s",
        "el"
      ],
      [
        "'",
        "ve"
      ],
      [
        "ir",
        "ed"
      ],
      [
        "▁lo",
        "bster"
      ],
      [
        "▁prom",
        "ise"
      ],
      [
        "▁ben",
        "eath"
      ],
      [
        "▁s",
        "at"
      ],
      [
        "▁you",
        ","
      ],
      [
        "▁",
        "earn"
      ],
      [
        "yb",
        "ug"
      ],
      [
        "ay",
        "be"
      ],
      [
        "▁smil",
        "ed."
      ],
      [
        "erm",
        "aid"
      ],
      [
        "▁th",
        "ose"
      ],
      [
        "▁loo",
        "k"
      ],
      [
        "o",
        "ther"
      ],
      [
        "▁sur",
        "round"
      ],
      [
        "▁ac",
        "ro"
      ],
      [
        "▁cl",
        "ear"
      ],
      [
        "▁b",
        "ree"
      ],
      [
        "im",
        "b"
      ],
      [
        "▁co",
        "me"
      ],
      [
        "r",
        "in"
      ],
      [
        "ect",
        "ar"
      ],
      [
        "▁fl",
        "amingo"
      ],
      [
        "▁dan",
        "ced"
      ],
      [
        "▁c",
        "all"
      ],
      [
        "▁bu",
        "ilt"
      ],
      [
        "▁n",
        "ectar"
      ],
      [
        "▁per",
        "sever"
      ],
      [
        "mele",
        "on"
      ],
      [
        "▁k",
        "angaroo"
      ],
      [
        "▁g",
        "ecko"
      ],
      [
        "▁rabbit",
        "'s"
      ],
      [
        "▁imp",
        "ort"
      ],
      [
        "it",
        "u"
      ],
      [
        "▁great",
        "est"
      ],
      [
        "▁s",
        "low"
      ],
      [
        "▁d",
        "ra"
      ],
      [
        "▁ro",
        "ll"
      ],
      [
        "▁spark",
        "led"
      ],
      [
        "▁cou",
        "r"
      ],
      [
        "mb",
        "ling"
      ],
      [
        "▁was",
        "p"
      ],
      [
        "▁acro",
        "ss"
      ],
      [
        "▁star",
        "fish"
      ],
      [
        "▁cor",
        "al"
      ],
      [
        "s",
        ".\n\nThe"
      ],
      [
        "▁b",
        "rought"
      ],
      [
        "▁cl",
        "imb"
      ],
      [
        "▁that",
        "'s"
      ],
      [
        "▁tea",
        "m"
      ],
      [
        "▁cha",
        "llen"
      ],
      [
        "▁off",
        "ered"
      ],
      [
        "h",
        ","
      ],
      [
        "▁m",
        "at"
      ],
      [
        "▁af",
        "ter"
      ],
      [
        "▁th",
        "ing"
      ],
      [
        "re",
        "s"
      ],
      [
        "s",
        "y"
      ],
      [
        "▁m",
        "ountain"
      ],
      [
        "ci",
        "ent"
      ],
      [
        "▁need",
        "ed"
      ],
      [
        "▁other",
        "."
      ],
      [
        "▁in",
        "s"
      ],
      [
        "▁li",
        "fe"
      ],
      [
        "▁la",
        "d"
      ],
      [
        "▁far",
        "mer"
      ],
      [
        "▁vis",
        "it"
      ],
      [
        "▁owl",
        "'s"
      ],
      [
        "v",
        "or"
      ],
      [
        "i",
        "ver"
      ],
      [
        "▁",
        "ice"
      ],
      [
        "i",
        "ant"
      ],
      [
        "e",
        "m"
      ],
      [
        "▁surpr",
        "ise"
      ],
      [
        "▁them",
        "."
      ],
      [
        "un",
        "gle"
      ],
      [
        "D",
        "eep"
      ],
      [
        "▁\"",
        "M"
      ],
      [
        "▁know",
        "ledge"
      ],
      [
        "▁la",
        "zy"
      ],
      [
        "▁r",
        "hinoceros"
      ],
      [
        "▁m",
        "ermaid"
      ],
      [
        "▁",
        "ear"
      ],
      [
        "▁comp",
        "assion"
      ],
      [
        "▁he",
        "al"
      ],
      [
        "▁an",
        "other"
      ],
      [
        "Q",
        "u"
      ],
      [
        "▁fa",
        "vor"
      ],
      [
        "▁comm",
        "unity"
      ],
      [
        "▁s",
        "ug"
      ],
      [
        "▁with",
        "in"
      ],
      [
        "▁him",
        "self"
      ],
      [
        "▁d",
        "ist"
      ],
      [
        "▁he",
        "ard"
      ],
      [
        "ear",
        "l"
      ],
      [
        "as",
        "is"
      ],
      [
        "▁j",
        "ungle"
      ],
      [
        "▁sh",
        "out"
      ],
      [
        "a",
        "g"
      ],
      [
        "▁wor",
        "ld"
      ],
      [
        "▁lad",
        "ybug"
      ],
      [
        "s.\"",
        "\n\nThe"
      ],
      [
        "id",
        "ent"
      ],
      [
        "▁sp",
        "ent"
      ],
      [
        "▁wa",
        "nder"
      ],
      [
        "▁F",
        "o"
      ],
      [
        "▁c",
        "ooper"
      ],
      [
        "▁an",
        "cient"
      ],
      [
        "▁sug",
        "gest"
      ],
      [
        "▁listen",
        "ing"
      ],
      [
        "▁se",
        "en"
      ],
      [
        "▁cha",
        "sed"
      ],
      [
        "▁ru",
        "in"
      ],
      [
        "aw",
        "s"
      ],
      [
        "▁water",
        "fall"
      ],
      [
        "yb",
        "ee"
      ],
      [
        "▁f",
        "un"
      ],
      [
        "▁sun",
        "light"
      ],
      [
        "op",
        "le"
      ],
      [
        "▁app",
        "ear"
      ],
      [
        "▁sp",
        "r"
      ],
      [
        "▁b",
        "re"
      ],
      [
        "▁she",
        "l"
      ],
      [
        "▁la",
        "ke"
      ],
      [
        "▁to",
        "w"
      ],
      [
        "▁favor",
        "ite"
      ],
      [
        "▁any",
        "one"
      ],
      [
        "▁\"I",
        "f"
      ],
      [
        "▁surround",
        "ed"
      ],
      [
        ".\n\n\"W",
        "hy"
      ],
      [
        "▁o",
        "asis"
      ],
      [
        "ion",
        "."
      ],
      [
        "▁ston",
        "es"
      ],
      [
        "u",
        "e"
      ],
      [
        "n",
        ","
      ],
      [
        "▁with",
        "out"
      ],
      [
        "▁val",
        "le"
      ],
      [
        "▁valu",
        "able"
      ],
      [
        "▁forg",
        "ave"
      ],
      [
        "ter",
        "ing"
      ],
      [
        "▁w",
        "el"
      ],
      [
        "▁explor",
        "ing"
      ],
      [
        "s",
        ".\n\nOne"
      ],
      [
        "▁fish",
        "."
      ],
      [
        "▁show",
        "ed"
      ],
      [
        "u",
        "gh"
      ],
      [
        "▁help",
        "ful"
      ],
      [
        "▁pri",
        "de"
      ],
      [
        "▁it",
        ","
      ],
      [
        "▁Fo",
        "x"
      ],
      [
        "▁be",
        "es"
      ],
      [
        "▁g",
        "rove"
      ],
      [
        ".\n\n",
        "Just"
      ],
      [
        "▁somet",
        "im"
      ],
      [
        "▁sear",
        "ching"
      ],
      [
        ".\"",
        "\n</story>"
      ],
      [
        "▁d",
        "ance"
      ],
      [
        "▁p",
        "earl"
      ],
      [
        "▁c",
        "ity"
      ],
      [
        "▁b",
        "ook"
      ],
      [
        "▁so",
        "ar"
      ],
      [
        "▁w",
        "eak"
      ],
      [
        "▁us",
        "ing"
      ],
      [
        "▁cha",
        "meleon"
      ],
      [
        "▁la",
        "ught"
      ],
      [
        "▁st",
        "eal"
      ],
      [
        "▁delic",
        "ious"
      ],
      [
        "▁m",
        "oral"
      ],
      [
        "▁",
        "ign"
      ],
      [
        "▁quick",
        "ly"
      ],
      [
        "▁re",
        "l"
      ],
      [
        "or",
        "k"
      ],
      [
        "ra",
        "ge"
      ],
      [
        "▁ca",
        "ver"
      ],
      [
        "▁re",
        "ad"
      ],
      [
        "▁us",
        "e"
      ],
      [
        "▁lea",
        "ds"
      ],
      [
        "▁fly",
        "ing"
      ],
      [
        "▁ca",
        "ught"
      ],
      [
        "▁reb",
        "u"
      ],
      [
        "▁sk",
        "unk"
      ],
      [
        "A",
        "s"
      ],
      [
        "▁wa",
        "st"
      ],
      [
        "at",
        "ic"
      ],
      [
        "▁cl",
        "um"
      ],
      [
        "ter",
        "ed"
      ],
      [
        "▁f",
        "ace"
      ],
      [
        "▁ref",
        "lect"
      ],
      [
        "▁W",
        "hy"
      ],
      [
        "▁br",
        "ings"
      ],
      [
        "▁hea",
        "vy"
      ],
      [
        "▁asked",
        "."
      ],
      [
        "▁I",
        "f"
      ],
      [
        "▁fe",
        "ll"
      ],
      [
        "▁s",
        "l"
      ],
      [
        "▁home",
        ","
      ],
      [
        "▁up",
        "."
      ],
      [
        "▁\"",
        "P"
      ],
      [
        "▁we",
        "'re"
      ],
      [
        "▁c",
        "unning"
      ],
      [
        "▁s",
        "ound"
      ],
      [
        "▁import",
        "ant"
      ],
      [
        "c",
        "han"
      ],
      [
        "▁",
        "Qu"
      ],
      [
        "▁knock",
        "ed"
      ],
      [
        "▁cl",
        "ean"
      ],
      [
        "▁bu",
        "z"
      ],
      [
        "is",
        "hed"
      ],
      [
        "et",
        "erm"
      ],
      [
        "▁R",
        "a"
      ],
      [
        "▁ha",
        "nd"
      ],
      [
        "▁c",
        "ur"
      ],
      [
        "▁g",
        "round"
      ],
      [
        "▁jo",
        "in"
      ],
      [
        "▁food",
        "."
      ],
      [
        "c",
        "ious"
      ],
      [
        "▁continu",
        "ed"
      ],
      [
        "▁lago",
        "on"
      ],
      [
        "▁St",
        "rong"
      ],
      [
        "▁secret",
        "s"
      ],
      [
        "u",
        "ff"
      ],
      [
        "▁re",
        "g"
      ],
      [
        "▁t",
        "reat"
      ],
      [
        "▁wor",
        "d"
      ],
      [
        "l",
        "o"
      ],
      [
        "▁p",
        "art"
      ],
      [
        "▁j",
        "eal"
      ],
      [
        ".\n\n\"",
        "I"
      ],
      [
        "▁st",
        "one"
      ],
      [
        "p",
        "es"
      ],
      [
        "▁happ",
        "en"
      ],
      [
        "▁him",
        "."
      ],
      [
        "▁sa",
        "v"
      ],
      [
        "w",
        "l"
      ],
      [
        "▁strugg",
        "ling"
      ],
      [
        "▁listen",
        "."
      ],
      [
        "re",
        "ci"
      ],
      [
        "▁th",
        "ri"
      ],
      [
        "▁fe",
        "st"
      ],
      [
        "▁fort",
        "ress"
      ],
      [
        "one",
        "st"
      ],
      [
        "▁G",
        "re"
      ],
      [
        "▁sing",
        "ing"
      ],
      [
        "▁la",
        "ugh"
      ],
      [
        "▁s",
        "er"
      ],
      [
        "▁food",
        ","
      ],
      [
        "▁f",
        "ree"
      ],
      [
        "▁app",
        "reci"
      ],
      [
        "▁fest",
        "ival"
      ],
      [
        "▁hone",
        "ybee"
      ],
      [
        "▁bro",
        "ken"
      ],
      [
        "▁t",
        "im"
      ],
      [
        "▁\"",
        "D"
      ],
      [
        "i",
        "ence"
      ],
      [
        "▁st",
        "ea"
      ],
      [
        "▁in",
        "v"
      ],
      [
        "▁sea",
        "we"
      ],
      [
        "▁out",
        ","
      ],
      [
        "▁sm",
        "ile"
      ],
      [
        "▁my",
        "self"
      ],
      [
        "ea",
        "se"
      ],
      [
        "p",
        "e"
      ],
      [
        "p",
        "end"
      ],
      [
        "▁st",
        "and"
      ],
      [
        "▁asha",
        "m"
      ],
      [
        "▁\"",
        "O"
      ],
      [
        "▁other",
        "s."
      ],
      [
        "▁joy",
        "ful"
      ],
      [
        "▁che",
        "st"
      ],
      [
        "o",
        "d"
      ],
      [
        "▁sear",
        "ched"
      ],
      [
        "▁",
        "ent"
      ],
      [
        "▁bra",
        "very"
      ],
      [
        "▁sto",
        "pped"
      ],
      [
        "▁return",
        "ed"
      ],
      [
        "side",
        ","
      ],
      [
        "ow",
        "ever,"
      ],
      [
        "▁d",
        "am"
      ],
      [
        "▁O",
        "wl"
      ],
      [
        "▁gl",
        "ad"
      ],
      [
        "m",
        "s"
      ],
      [
        "▁W",
        "ise"
      ],
      [
        "▁st",
        "e"
      ],
      [
        "▁S",
        "o,"
      ],
      [
        "▁g",
        "ift"
      ],
      [
        "▁dan",
        "ger"
      ],
      [
        "▁ey",
        "es."
      ],
      [
        "▁c",
        "har"
      ],
      [
        "▁sh",
        "ip"
      ],
      [
        "▁hum",
        "ility"
      ],
      [
        "▁m",
        "el"
      ],
      [
        "▁surpr",
        "ised"
      ],
      [
        "▁stre",
        "am"
      ],
      [
        "▁ac",
        "cept"
      ],
      [
        "▁bloo",
        "med"
      ],
      [
        "we",
        "en"
      ],
      [
        "▁bet",
        "ween"
      ],
      [
        "f",
        "l"
      ],
      [
        "▁h",
        "ot"
      ],
      [
        "▁d",
        "ust"
      ],
      [
        "▁call",
        "ed"
      ],
      [
        "n",
        "ing"
      ],
      [
        "▁K",
        "ind"
      ],
      [
        "▁you",
        "ng"
      ],
      [
        "▁\"W",
        "hat's"
      ],
      [
        "▁other",
        "'s"
      ],
      [
        "▁pe",
        "bb"
      ],
      [
        "pp",
        "ing"
      ],
      [
        "▁\"N",
        "o,"
      ],
      [
        "▁alone",
        "."
      ],
      [
        "▁tru",
        "ly"
      ],
      [
        "▁cave",
        "."
      ],
      [
        "▁cave",
        ","
      ],
      [
        "▁learn",
        "ing"
      ],
      [
        ".\n\n",
        "W"
      ],
      [
        "▁fruit",
        "s"
      ],
      [
        "▁forest",
        ","
      ],
      [
        "▁pol",
        "ite"
      ],
      [
        "st",
        "ers"
      ],
      [
        "f",
        "ound"
      ],
      [
        "▁S",
        "har"
      ],
      [
        "▁you",
        "."
      ],
      [
        "▁new",
        "found"
      ],
      [
        "ill",
        "s"
      ],
      [
        "▁them",
        ","
      ],
      [
        "ut",
        "ious"
      ],
      [
        "▁loo",
        "king"
      ],
      [
        "▁understand",
        "ing"
      ],
      [
        "unn",
        "el"
      ],
      [
        "▁work",
        "ed,"
      ],
      [
        "t",
        "ter"
      ],
      [
        "▁w",
        "ide"
      ],
      [
        "cer",
        "ity"
      ],
      [
        "▁fisherm",
        "an"
      ],
      [
        "▁collect",
        "ing"
      ],
      [
        "ow",
        ","
      ],
      [
        "che",
        "s"
      ],
      [
        "er",
        "ing"
      ],
      [
        "▁t",
        "unnel"
      ],
      [
        "▁L",
        "et's"
      ],
      [
        "▁d",
        "ear"
      ],
      [
        "▁ru",
        "mor"
      ],
      [
        "▁wel",
        "co"
      ],
      [
        "▁lea",
        "ve"
      ],
      [
        "i",
        "ven"
      ],
      [
        "▁bel",
        "ong"
      ],
      [
        "ar",
        "row"
      ],
      [
        "▁again",
        "."
      ],
      [
        "v",
        "es,"
      ],
      [
        "▁en",
        "joy"
      ],
      [
        "itu",
        "de"
      ],
      [
        "▁sh",
        "in"
      ],
      [
        "▁t",
        "ak"
      ],
      [
        "us",
        "ing"
      ],
      [
        "s",
        "er"
      ],
      [
        ".\"\n\n",
        "From"
      ],
      [
        "t",
        "itude"
      ],
      [
        "t",
        "es"
      ],
      [
        "▁clum",
        "sy"
      ],
      [
        "ce",
        "re"
      ],
      [
        "▁laught",
        "er"
      ],
      [
        "▁jo",
        "ined"
      ],
      [
        "f",
        "low"
      ],
      [
        "▁re",
        "v"
      ],
      [
        "▁fo",
        "sters"
      ],
      [
        "▁L",
        "ittle"
      ],
      [
        "▁dece",
        "it"
      ],
      [
        "▁agre",
        "ed,"
      ],
      [
        "▁pe",
        "ople"
      ],
      [
        "▁reg",
        "ret"
      ],
      [
        "▁al",
        "ong"
      ],
      [
        "▁gener",
        "osity"
      ],
      [
        "▁some",
        "one"
      ],
      [
        "▁bran",
        "ch"
      ],
      [
        "▁sway",
        "ed"
      ],
      [
        "▁d",
        "eterm"
      ],
      [
        "s",
        "ive"
      ],
      [
        "▁k",
        "e"
      ],
      [
        "▁lea",
        "ves"
      ],
      [
        "▁w",
        "ing"
      ],
      [
        "▁e",
        "nd"
      ],
      [
        "▁swim",
        "ming"
      ],
      [
        "s",
        "et"
      ],
      [
        "▁nodd",
        "ed,"
      ],
      [
        "▁right",
        "."
      ],
      [
        "▁cl",
        "os"
      ],
      [
        "▁forg",
        "ot"
      ],
      [
        "▁l",
        "ed"
      ],
      [
        "▁emp",
        "at"
      ],
      [
        "▁c",
        "re"
      ],
      [
        "▁persever",
        "ance"
      ],
      [
        "▁surprise",
        ","
      ],
      [
        "▁\"I",
        "'ll"
      ],
      [
        "▁fo",
        "llow"
      ],
      [
        "▁li",
        "ve"
      ],
      [
        "it",
        "her"
      ],
      [
        "▁roll",
        "ed"
      ],
      [
        "▁ra",
        "n"
      ],
      [
        ".\n\n",
        "Together,"
      ],
      [
        "▁him",
        ","
      ],
      [
        "▁un",
        "ity"
      ],
      [
        "▁wind",
        "s"
      ],
      [
        "i",
        "er"
      ],
      [
        "▁m",
        "on"
      ],
      [
        "▁act",
        "ions"
      ],
      [
        "▁hom",
        "es"
      ],
      [
        "ar",
        "ing"
      ],
      [
        "▁explor",
        "ed"
      ],
      [
        "▁mistak",
        "es"
      ],
      [
        "▁nodd",
        "ed"
      ],
      [
        "▁b",
        "al"
      ],
      [
        "▁care",
        "ful"
      ],
      [
        "▁Ra",
        "bbit"
      ],
      [
        "ul",
        "sive"
      ],
      [
        "▁again",
        ","
      ],
      [
        "▁It",
        "'s"
      ],
      [
        "▁we",
        "b"
      ],
      [
        "ay",
        "s"
      ],
      [
        "▁an",
        "ger"
      ],
      [
        "▁f",
        "re"
      ],
      [
        "el",
        "p"
      ],
      [
        "▁car",
        "rot"
      ],
      [
        "ec",
        "ted"
      ],
      [
        "▁l",
        "ush"
      ],
      [
        "▁g",
        "a"
      ],
      [
        "▁welco",
        "med"
      ],
      [
        "▁shel",
        "ter"
      ],
      [
        "▁l",
        "one"
      ],
      [
        "at",
        "ed"
      ],
      [
        "▁sa",
        "f"
      ],
      [
        "▁mat",
        "ter"
      ],
      [
        "▁r",
        "un"
      ],
      [
        "▁\"",
        "B"
      ],
      [
        "▁S",
        "h"
      ],
      [
        "▁cha",
        "se"
      ],
      [
        "▁moment",
        "."
      ],
      [
        ".\n\n",
        "S"
      ],
      [
        "he",
        "re"
      ],
      [
        "at",
        "ive"
      ],
      [
        "d",
        "ent"
      ],
      [
        "▁sw",
        "oop"
      ],
      [
        "▁Qu",
        "ick"
      ],
      [
        "▁cou",
        "rage"
      ],
      [
        "▁p",
        "ick"
      ],
      [
        "▁pl",
        "ant"
      ],
      [
        "▁m",
        "ine"
      ],
      [
        "▁rock",
        "s"
      ],
      [
        "▁ag",
        "ree"
      ],
      [
        "e",
        "w"
      ],
      [
        "▁p",
        "ira"
      ],
      [
        "▁su",
        "c"
      ],
      [
        "ro",
        "y"
      ],
      [
        "▁bo",
        "ld"
      ],
      [
        "▁mel",
        "od"
      ],
      [
        "▁dest",
        "roy"
      ],
      [
        "▁m",
        "ar"
      ],
      [
        "▁G",
        "o"
      ],
      [
        "ast",
        "er"
      ],
      [
        "▁de",
        "f"
      ],
      [
        "▁sin",
        "cerity"
      ],
      [
        "▁over",
        "come"
      ],
      [
        "i",
        "sten"
      ],
      [
        "▁E",
        "very"
      ],
      [
        "▁stea",
        "ling"
      ],
      [
        "▁creat",
        "e"
      ],
      [
        "▁challen",
        "ge"
      ],
      [
        "ood",
        "y"
      ],
      [
        "▁o",
        "tter"
      ],
      [
        "▁car",
        "ry"
      ],
      [
        "▁trick",
        "s"
      ],
      [
        "▁celebra",
        "ted"
      ],
      [
        "▁sa",
        "ve"
      ],
      [
        "▁rebu",
        "ild"
      ],
      [
        "ru",
        "dent"
      ],
      [
        "▁agre",
        "ed"
      ],
      [
        "▁de",
        "v"
      ],
      [
        "▁\"T",
        "his"
      ],
      [
        "▁k",
        "ing"
      ],
      [
        "at",
        "ing"
      ],
      [
        "▁wor",
        "ried"
      ],
      [
        "▁S",
        "p"
      ],
      [
        "▁F",
        "ish"
      ],
      [
        "▁seagull",
        "s"
      ],
      [
        "▁see",
        "ing"
      ],
      [
        "▁d",
        "un"
      ],
      [
        "▁idea",
        "."
      ],
      [
        "▁ign",
        "or"
      ],
      [
        "▁gl",
        "it"
      ],
      [
        "▁pl",
        "ain"
      ],
      [
        "han",
        "k"
      ],
      [
        "ie",
        "st"
      ],
      [
        "▁st",
        "ick"
      ],
      [
        "▁friend",
        "."
      ],
      [
        "▁do",
        "es"
      ],
      [
        "▁You",
        "'re"
      ],
      [
        "d",
        "ow"
      ],
      [
        "▁m",
        "orn"
      ],
      [
        "▁n",
        "a"
      ],
      [
        "z",
        "ard"
      ],
      [
        "▁sad",
        "."
      ],
      [
        "▁li",
        "bra"
      ],
      [
        "▁creature",
        "s,"
      ],
      [
        "▁pre",
        "vent"
      ],
      [
        "▁glit",
        "tering"
      ],
      [
        "▁w",
        "ild"
      ],
      [
        "w",
        "ork"
      ],
      [
        "u",
        "d"
      ],
      [
        "▁heart",
        "s"
      ],
      [
        "▁rem",
        "ind"
      ],
      [
        "i",
        "re"
      ],
      [
        "▁be",
        "come"
      ],
      [
        "▁e",
        "ch"
      ],
      [
        "▁creature",
        "s."
      ],
      [
        "▁sin",
        "cere"
      ],
      [
        "▁ama",
        "zed"
      ],
      [
        "▁S",
        "o"
      ],
      [
        "▁flower",
        "s,"
      ],
      [
        "▁bree",
        "z"
      ],
      [
        "▁village",
        ","
      ],
      [
        "▁gra",
        "titude"
      ],
      [
        "▁kindnes",
        "s."
      ],
      [
        "▁tre",
        "e."
      ],
      [
        "▁not",
        "hing"
      ],
      [
        "▁st",
        "uck"
      ],
      [
        "D",
        "ays"
      ],
      [
        "▁s",
        "il"
      ],
      [
        "u",
        "al"
      ],
      [
        "▁n",
        "et"
      ],
      [
        "▁bl",
        "ack"
      ],
      [
        "▁m",
        "ess"
      ],
      [
        "v",
        "es."
      ],
      [
        "▁ech",
        "o"
      ],
      [
        "▁car",
        "ing"
      ],
      [
        "▁temple",
        "'s"
      ],
      [
        "▁sec",
        "ond"
      ],
      [
        "▁watch",
        "ful"
      ],
      [
        "e",
        "k"
      ],
      [
        "ry",
        ","
      ],
      [
        "▁lea",
        "ving"
      ],
      [
        "▁f",
        "all"
      ],
      [
        "▁water",
        "."
      ],
      [
        "▁every",
        "thing"
      ],
      [
        "▁f",
        "in"
      ],
      [
        "▁acc",
        "ident"
      ],
      [
        "▁un",
        "t"
      ],
      [
        "▁cru",
        "el"
      ],
      [
        "▁animal",
        "s,"
      ],
      [
        "▁Gre",
        "edy"
      ],
      [
        "▁ru",
        "le"
      ],
      [
        "▁sh",
        "ore"
      ],
      [
        "▁wh",
        "ite"
      ],
      [
        "▁re",
        "ward"
      ],
      [
        "▁stor",
        "ies"
      ],
      [
        "▁he",
        "ad"
      ],
      [
        "on",
        "s"
      ],
      [
        "▁re",
        "ached"
      ],
      [
        "i",
        "es,"
      ],
      [
        "▁en",
        "chan"
      ],
      [
        "▁H",
        "is"
      ],
      [
        "▁O",
        "ld"
      ],
      [
        "a",
        "c"
      ],
      [
        "▁peace",
        "ful"
      ],
      [
        "▁tre",
        "e,"
      ],
      [
        "▁But",
        ","
      ],
      [
        "▁do",
        "."
      ],
      [
        "▁m",
        "ind"
      ],
      [
        "▁forg",
        "ive"
      ],
      [
        "▁m",
        "oody"
      ],
      [
        "▁li",
        "ft"
      ],
      [
        "ew",
        "el"
      ],
      [
        "lo",
        "yal"
      ],
      [
        "▁so",
        "on,"
      ],
      [
        "▁sn",
        "eaky"
      ],
      [
        "▁exc",
        "l"
      ],
      [
        "▁j",
        "ewel"
      ],
      [
        "▁",
        "icy"
      ],
      [
        "an",
        "k"
      ],
      [
        "▁hesit",
        "at"
      ],
      [
        "a",
        "ir"
      ],
      [
        "▁jeal",
        "ous"
      ],
      [
        "a",
        "it"
      ],
      [
        "▁t",
        "ired"
      ],
      [
        "▁cru",
        "mbling"
      ],
      [
        "▁th",
        "reat"
      ],
      [
        "▁turn",
        "ed"
      ],
      [
        "▁ey",
        "e"
      ],
      [
        "ic",
        "t"
      ],
      [
        "a",
        "ch"
      ],
      [
        "b",
        "or"
      ],
      [
        "t",
        "'s"
      ],
      [
        "or",
        "m"
      ],
      [
        "▁ha",
        "s"
      ],
      [
        "▁heart",
        "."
      ],
      [
        "▁owl",
        "."
      ],
      [
        "▁too",
        "."
      ],
      [
        "▁garden",
        ","
      ],
      [
        "▁by",
        ","
      ],
      [
        "▁sn",
        "at"
      ],
      [
        "▁fear",
        "less"
      ],
      [
        "ce",
        "ited"
      ],
      [
        "i",
        "qu"
      ],
      [
        "▁st",
        "all"
      ],
      [
        "▁ca",
        "utious"
      ],
      [
        "▁w",
        "in"
      ],
      [
        "▁sometim",
        "es,"
      ],
      [
        "▁sol",
        "ut"
      ],
      [
        "▁suggest",
        "ed"
      ],
      [
        "▁bo",
        "nd"
      ],
      [
        "ite",
        "ment"
      ],
      [
        "row",
        "n"
      ],
      [
        "▁differen",
        "ce"
      ],
      [
        "▁bl",
        "ue"
      ],
      [
        "▁conf",
        "us"
      ],
      [
        "▁sw",
        "ept"
      ],
      [
        "▁exc",
        "itement"
      ],
      [
        "▁empat",
        "hy"
      ],
      [
        "▁its",
        "elf"
      ],
      [
        "▁d",
        "en"
      ],
      [
        "▁Sw",
        "ift"
      ],
      [
        "▁b",
        "lew"
      ],
      [
        "▁d",
        "one"
      ],
      [
        "▁nest",
        "."
      ],
      [
        "▁ar",
        "ri"
      ],
      [
        "▁water",
        ","
      ],
      [
        "g",
        "es"
      ],
      [
        "▁s",
        "co"
      ],
      [
        "uff",
        "y"
      ],
      [
        "▁flower",
        "s."
      ],
      [
        "▁f",
        "inal"
      ],
      [
        "▁wa",
        "it"
      ],
      [
        "▁excl",
        "aim"
      ],
      [
        "▁tak",
        "en"
      ],
      [
        "▁animal",
        "s."
      ],
      [
        "▁team",
        "work"
      ],
      [
        "▁p",
        "ool"
      ],
      [
        "▁bloo",
        "m"
      ],
      [
        "▁\"We",
        "'re"
      ],
      [
        "▁un",
        "iqu"
      ],
      [
        "z",
        "z"
      ],
      [
        "▁sp",
        "o"
      ],
      [
        "▁get",
        "ting"
      ],
      [
        "▁green",
        "house"
      ],
      [
        "▁H",
        "onest"
      ],
      [
        "ic",
        "ious"
      ],
      [
        "▁see",
        "med"
      ],
      [
        "▁water",
        "s"
      ],
      [
        "▁H",
        "elp"
      ],
      [
        "▁\"T",
        "hat's"
      ],
      [
        "a",
        "ci"
      ],
      [
        "▁fort",
        "res"
      ],
      [
        "el",
        "and"
      ],
      [
        "ion",
        ","
      ],
      [
        "▁ca",
        "using"
      ],
      [
        "▁mist",
        "y"
      ],
      [
        "ur",
        "ed"
      ],
      [
        "▁asham",
        "ed."
      ],
      [
        "▁Sn",
        "eaky"
      ],
      [
        "▁\"W",
        "hen"
      ],
      [
        "▁seawe",
        "ed"
      ],
      [
        "g",
        "ing"
      ],
      [
        "ir",
        "it"
      ],
      [
        "▁ta",
        "il"
      ],
      [
        "u",
        "bb"
      ],
      [
        "▁s",
        "i"
      ],
      [
        "ol",
        "ent"
      ],
      [
        "or",
        "s"
      ],
      [
        "▁v",
        "ast"
      ],
      [
        "ci",
        "pl"
      ],
      [
        "l",
        "ed."
      ],
      [
        "▁path",
        "s"
      ],
      [
        "▁st",
        "op"
      ],
      [
        "i",
        "ed"
      ],
      [
        "▁ref",
        "used"
      ],
      [
        "▁li",
        "zard"
      ],
      [
        "▁D",
        "is"
      ],
      [
        "▁strong",
        ","
      ],
      [
        "▁wander",
        "ed"
      ],
      [
        "▁",
        "ve"
      ],
      [
        "fl",
        "ies"
      ],
      [
        "▁bre",
        "ak"
      ],
      [
        "▁caver",
        "n"
      ],
      [
        "▁ke",
        "y"
      ],
      [
        "▁hone",
        "y"
      ],
      [
        "l",
        "ease"
      ],
      [
        "▁in",
        "d"
      ],
      [
        "▁mo",
        "ve"
      ],
      [
        "▁w",
        "on't"
      ],
      [
        "▁in",
        "side"
      ],
      [
        "▁o",
        "pp"
      ],
      [
        "▁de",
        "pend"
      ],
      [
        "▁dis",
        "c"
      ],
      [
        "▁H",
        "ear"
      ],
      [
        "cipl",
        "ined"
      ],
      [
        "ubb",
        "orn"
      ],
      [
        "▁",
        "Just"
      ],
      [
        "▁</moral>\n<story>\n",
        "Deep"
      ],
      [
        "▁agree",
        "ment"
      ],
      [
        "▁sp",
        "eak"
      ],
      [
        "▁determ",
        "ined"
      ],
      [
        "ed",
        "ge"
      ],
      [
        "▁sp",
        "irit"
      ],
      [
        ".\n\n",
        "Days"
      ],
      [
        "▁tre",
        "es,"
      ],
      [
        "▁wast",
        "eland"
      ],
      [
        "▁soft",
        "en"
      ],
      [
        "▁p",
        "u"
      ],
      [
        "▁C",
        "l"
      ],
      [
        "▁d",
        "iv"
      ],
      [
        "ted",
        "."
      ],
      [
        "▁e",
        "l"
      ],
      [
        "▁d",
        "ign"
      ],
      [
        "▁appreci",
        "ate"
      ],
      [
        "am",
        "b"
      ],
      [
        "▁accept",
        "ance"
      ],
      [
        "▁all",
        ".\n</story>"
      ],
      [
        "▁fox",
        ","
      ],
      [
        "▁bright",
        "er"
      ],
      [
        "▁s",
        "y"
      ],
      [
        "▁wonder",
        "ful"
      ],
      [
        "▁night",
        ","
      ],
      [
        "ur",
        "ch"
      ],
      [
        "▁p",
        "ang"
      ],
      [
        "▁p",
        "ull"
      ],
      [
        "▁accident",
        "ally"
      ],
      [
        "?\"",
        "\n\n"
      ],
      [
        "▁heart",
        "b"
      ],
      [
        "▁mo",
        "ther"
      ],
      [
        "▁dust",
        "y"
      ],
      [
        "▁belie",
        "ved"
      ],
      [
        "▁s",
        "ca"
      ],
      [
        "▁uniqu",
        "e"
      ],
      [
        "▁el",
        "se"
      ],
      [
        "▁b",
        "a"
      ],
      [
        "▁bird",
        "s,"
      ],
      [
        "▁C",
        "ra"
      ],
      [
        "▁again",
        "st"
      ],
      [
        "▁depend",
        "able"
      ],
      [
        "p",
        "s"
      ],
      [
        "▁beautiful",
        ","
      ],
      [
        "st",
        "y"
      ],
      [
        "ra",
        "c"
      ],
      [
        "▁shin",
        "ing"
      ],
      [
        "▁gener",
        "ous"
      ],
      [
        "u",
        "ally"
      ],
      [
        "us",
        "hed"
      ],
      [
        "k",
        "ay"
      ],
      [
        "▁mistake",
        "."
      ],
      [
        "▁b",
        "it"
      ],
      [
        "▁t",
        "ast"
      ],
      [
        "▁cooper",
        "ation"
      ],
      [
        "▁gre",
        "ed"
      ],
      [
        "▁sa",
        "il"
      ],
      [
        "▁pow",
        "erful"
      ],
      [
        "▁far",
        "m"
      ],
      [
        "▁differen",
        "ces"
      ],
      [
        "▁\"",
        "C"
      ],
      [
        "▁ch",
        "urch"
      ],
      [
        "▁loyal",
        "ty"
      ],
      [
        "▁sa",
        "me"
      ],
      [
        "dd",
        "led"
      ],
      [
        "▁gl",
        "aci"
      ],
      [
        "▁v",
        "i"
      ],
      [
        "ro",
        "ken"
      ],
      [
        "▁cha",
        "sing"
      ],
      [
        "in",
        "e,"
      ],
      [
        "▁ju",
        "mp"
      ],
      [
        "▁",
        "\n\n"
      ],
      [
        "▁g",
        "iving"
      ],
      [
        "▁\"T",
        "hank"
      ],
      [
        "▁st",
        "ubborn"
      ],
      [
        "▁\"W",
        "ait"
      ],
      [
        "an",
        "n"
      ],
      [
        "▁S",
        "quirrel"
      ],
      [
        "m",
        "atic"
      ],
      [
        "n",
        "s"
      ],
      [
        "▁W",
        "hat"
      ],
      [
        "rot",
        "to"
      ],
      [
        "ull",
        "ible"
      ],
      [
        "▁forg",
        "iven"
      ],
      [
        "▁unt",
        "il"
      ],
      [
        "▁thri",
        "fty"
      ],
      [
        "▁ho",
        "ld"
      ],
      [
        "▁any",
        "thing"
      ],
      [
        "▁back",
        ","
      ],
      [
        "▁swoop",
        "ed"
      ],
      [
        "iv",
        "es"
      ],
      [
        ".",
        "."
      ],
      [
        "▁wall",
        "s"
      ],
      [
        "▁b",
        "ur"
      ],
      [
        "▁fl",
        "uffy"
      ],
      [
        "▁fea",
        "st"
      ],
      [
        "▁dis",
        "app"
      ],
      [
        "▁cl",
        "ose"
      ],
      [
        "▁final",
        "ly"
      ],
      [
        "▁river",
        ","
      ],
      [
        "▁rabbit",
        "."
      ],
      [
        "▁co",
        "at"
      ],
      [
        "▁me",
        "et"
      ],
      [
        "▁gl",
        "ow"
      ],
      [
        "▁che",
        "ered,"
      ],
      [
        "▁happy",
        "."
      ],
      [
        "▁reflect",
        "ion"
      ],
      [
        "▁",
        "ill"
      ],
      [
        "▁W",
        "ith"
      ],
      [
        "▁lago",
        "on,"
      ],
      [
        "in",
        "ess"
      ],
      [
        "▁can",
        "y"
      ],
      [
        "▁bo",
        "at"
      ],
      [
        "▁on",
        "es"
      ],
      [
        "▁",
        "V"
      ],
      [
        "▁heartb",
        "roken"
      ],
      [
        "▁pow",
        "er"
      ],
      [
        "▁me",
        ","
      ],
      [
        "▁mo",
        "dest"
      ],
      [
        "▁g",
        "rotto"
      ],
      [
        "▁no",
        "ble"
      ],
      [
        "▁\"",
        "F"
      ],
      [
        "a",
        "il"
      ],
      [
        "▁Hear",
        "t"
      ],
      [
        "▁ne",
        "ck"
      ],
      [
        "▁them",
        "sel"
      ],
      [
        "s",
        "ible"
      ],
      [
        "▁spr",
        "ing"
      ],
      [
        "char",
        "d"
      ],
      [
        "▁gra",
        "nd"
      ],
      [
        "▁self",
        "ish"
      ],
      [
        "▁before",
        "."
      ],
      [
        "tes",
        "y"
      ],
      [
        "▁kindnes",
        "s,"
      ],
      [
        "▁echo",
        "ed"
      ],
      [
        ".\n\n",
        "H"
      ],
      [
        "▁hesitat",
        "ed,"
      ],
      [
        "or",
        ","
      ],
      [
        "▁big",
        "gest"
      ],
      [
        "ve",
        "st"
      ],
      [
        "bra",
        "nt"
      ],
      [
        "▁b",
        "reat"
      ],
      [
        "▁sh",
        "ou"
      ],
      [
        "▁tim",
        "id"
      ],
      [
        "ed",
        "ient"
      ],
      [
        "▁wor",
        "ri"
      ],
      [
        "▁at",
        "t"
      ],
      [
        "▁happ",
        "ier"
      ],
      [
        "ot",
        "ed"
      ],
      [
        "▁emp",
        "ty"
      ],
      [
        "▁ser",
        "ious"
      ],
      [
        "▁long",
        "er"
      ],
      [
        "▁sk",
        "ills"
      ],
      [
        "▁sk",
        "y,"
      ],
      [
        "▁m",
        "ay"
      ],
      [
        "i",
        "gh"
      ],
      [
        "▁I",
        "mp"
      ],
      [
        ".\n\nW",
        "hen"
      ],
      [
        "▁en",
        "vy"
      ],
      [
        "▁soar",
        "ed"
      ],
      [
        "▁sh",
        "ine"
      ],
      [
        "▁trouble",
        "."
      ],
      [
        "▁lead",
        "er"
      ],
      [
        "▁what",
        "'s"
      ],
      [
        "by",
        "rin"
      ],
      [
        "byrin",
        "th"
      ],
      [
        "▁heart",
        ","
      ],
      [
        "▁as",
        "king"
      ],
      [
        "▁reb",
        "ell"
      ],
      [
        "▁tal",
        "ent"
      ],
      [
        "▁bea",
        "ch"
      ],
      [
        "▁li",
        "es"
      ],
      [
        "▁gather",
        "ing"
      ],
      [
        "▁morn",
        "ing,"
      ],
      [
        "▁co",
        "ver"
      ],
      [
        "▁bet",
        "ra"
      ],
      [
        "▁prevent",
        "s"
      ],
      [
        "▁treasure",
        ","
      ],
      [
        "▁or",
        "chard"
      ],
      [
        "▁s",
        "us"
      ],
      [
        "▁up",
        "set"
      ],
      [
        "▁out",
        "s"
      ],
      [
        "ou",
        "s."
      ],
      [
        "▁la",
        "st"
      ],
      [
        "le",
        ","
      ],
      [
        "▁grow",
        "th"
      ],
      [
        "▁sca",
        "re"
      ],
      [
        "▁co",
        "ld"
      ],
      [
        "▁che",
        "erful"
      ],
      [
        "▁chan",
        "ce"
      ],
      [
        "▁her",
        "o"
      ],
      [
        "▁m",
        "us"
      ],
      [
        "▁do",
        "ing"
      ],
      [
        "en",
        "ed"
      ],
      [
        "▁mar",
        "sh"
      ],
      [
        "▁me",
        "?\""
      ],
      [
        "k",
        "s"
      ],
      [
        "▁chan",
        "ces"
      ],
      [
        "▁wa",
        "re"
      ],
      [
        "▁C",
        "an"
      ],
      [
        "▁sha",
        "dow"
      ],
      [
        "▁valle",
        "y"
      ],
      [
        "▁b",
        "ust"
      ],
      [
        "ne",
        "ver"
      ],
      [
        "▁berri",
        "es,"
      ],
      [
        "▁asha",
        "med"
      ],
      [
        "▁nest",
        ","
      ],
      [
        "▁\"",
        "R"
      ],
      [
        "▁say",
        "ing"
      ],
      [
        "▁king",
        "dom"
      ],
      [
        "ch",
        "ool"
      ],
      [
        "▁cou",
        "n"
      ],
      [
        "▁fre",
        "sh"
      ],
      [
        "▁friends.",
        "\""
      ],
      [
        "amb",
        "oo"
      ],
      [
        "▁It",
        "s"
      ],
      [
        "▁sp",
        "e"
      ],
      [
        "▁vi",
        "brant"
      ],
      [
        "▁sen",
        "se"
      ],
      [
        "▁dra",
        "matic"
      ],
      [
        ".\"\n\n",
        "As"
      ],
      [
        "▁rev",
        "eal"
      ],
      [
        "▁\"",
        "G"
      ],
      [
        "▁trust",
        "ed"
      ],
      [
        "as",
        "h"
      ],
      [
        "r",
        "ed"
      ],
      [
        "▁thought",
        "ful"
      ],
      [
        "▁gu",
        "ard"
      ],
      [
        "▁out",
        "l"
      ],
      [
        "c",
        "ing"
      ],
      [
        "▁T",
        "h"
      ],
      [
        "▁temple",
        ","
      ],
      [
        "▁treasure",
        "."
      ],
      [
        "▁alone",
        ","
      ],
      [
        "▁play",
        "ful"
      ],
      [
        "er",
        "ved"
      ],
      [
        "▁around",
        ","
      ],
      [
        "▁berri",
        "es."
      ],
      [
        "▁ad",
        "v"
      ],
      [
        "▁ocean",
        ","
      ],
      [
        "▁keep",
        "ing"
      ],
      [
        "▁spo",
        "ke"
      ],
      [
        "▁ill",
        "us"
      ],
      [
        "▁mon",
        "aster"
      ],
      [
        "▁outl",
        "ives"
      ],
      [
        "▁tra",
        "pped"
      ],
      [
        "▁B",
        "ig"
      ],
      [
        "i",
        "es."
      ],
      [
        "▁just",
        "ice"
      ],
      [
        "▁p",
        "ret"
      ],
      [
        "▁y",
        "ear"
      ],
      [
        "▁dis",
        "ciplined"
      ],
      [
        "▁pebb",
        "les"
      ],
      [
        "▁ware",
        "house"
      ],
      [
        "▁desert",
        ","
      ],
      [
        "▁bust",
        "ling"
      ],
      [
        "▁herself",
        "."
      ],
      [
        "▁in",
        "de"
      ],
      [
        "▁whe",
        "never"
      ],
      [
        "▁T",
        "ortoise"
      ],
      [
        "▁pre",
        "p"
      ],
      [
        "▁underst",
        "ood"
      ],
      [
        "▁la",
        "byrinth"
      ],
      [
        "ran",
        "ge"
      ],
      [
        "▁not",
        "ice"
      ],
      [
        "▁bal",
        "ance"
      ],
      [
        "▁\"D",
        "on't"
      ],
      [
        "▁b",
        "amboo"
      ],
      [
        "▁",
        "'"
      ],
      [
        "▁whisp",
        "ered,"
      ],
      [
        "er",
        "'s"
      ],
      [
        "▁over",
        "he"
      ],
      [
        "▁does",
        "n't"
      ],
      [
        "n",
        "ival"
      ],
      [
        "ress",
        "ion"
      ],
      [
        "▁W",
        "ings"
      ],
      [
        "▁p",
        "alm"
      ],
      [
        "▁M",
        "aybe"
      ],
      [
        "▁s",
        "le"
      ],
      [
        "▁th",
        "ick"
      ],
      [
        "▁shell",
        "s"
      ],
      [
        "▁bl",
        "ind"
      ],
      [
        "▁set",
        ","
      ],
      [
        "in",
        "t"
      ],
      [
        "▁g",
        "ave"
      ],
      [
        "▁mus",
        "ic"
      ],
      [
        "▁song",
        "s"
      ],
      [
        "▁deceit",
        "ful"
      ],
      [
        "p",
        "ected"
      ],
      [
        "v",
        "al"
      ],
      [
        "ro",
        "p"
      ],
      [
        "▁belie",
        "ve"
      ],
      [
        "▁de",
        "m"
      ],
      [
        "▁Imp",
        "ulsive"
      ],
      [
        "▁find",
        "s"
      ],
      [
        "▁s",
        "qu"
      ],
      [
        "▁M",
        "o"
      ],
      [
        "▁t",
        "ang"
      ],
      [
        "▁wa",
        "ves"
      ],
      [
        "ro",
        "gan"
      ],
      [
        "▁asked",
        ".\n\nThe"
      ],
      [
        "▁place",
        "."
      ],
      [
        "b",
        "ank"
      ],
      [
        "▁h",
        "ill"
      ],
      [
        "▁surpr",
        "is"
      ],
      [
        "▁\"I",
        "t's"
      ],
      [
        "▁cl",
        "aim"
      ],
      [
        "ct",
        "ic"
      ],
      [
        "▁we",
        "'ll"
      ],
      [
        "▁flo",
        "ating"
      ],
      [
        "ar",
        "ted"
      ],
      [
        "▁ro",
        "amed"
      ],
      [
        "▁clos",
        "er"
      ],
      [
        "▁g",
        "ust"
      ],
      [
        "ain",
        "ed"
      ],
      [
        "▁conf",
        "l"
      ],
      [
        "▁shout",
        "ed,"
      ],
      [
        "▁sol",
        "ve"
      ],
      [
        "▁bur",
        "row"
      ],
      [
        "▁co",
        "ve"
      ],
      [
        "▁is",
        ":"
      ],
      [
        "▁res",
        "erved"
      ],
      [
        "▁ben",
        "ef"
      ],
      [
        "▁confl",
        "ict"
      ],
      [
        "▁o",
        "kay"
      ],
      [
        "▁h",
        "ig"
      ],
      [
        ".\"\n\n",
        "But"
      ],
      [
        "ed",
        ".\n\nThe"
      ],
      [
        "▁che",
        "ered"
      ],
      [
        "▁build",
        "ing"
      ],
      [
        "▁mermaid",
        "s"
      ],
      [
        "▁sc",
        "al"
      ],
      [
        "▁p",
        "ond"
      ],
      [
        "▁car",
        "nival"
      ],
      [
        "y",
        "ond"
      ],
      [
        "▁dra",
        "g"
      ],
      [
        "▁saf",
        "et"
      ],
      [
        "▁Cra",
        "b"
      ],
      [
        "▁buz",
        "zed"
      ],
      [
        "▁show",
        "ing"
      ],
      [
        "c",
        "ess"
      ],
      [
        "▁moment",
        ","
      ],
      [
        "entle",
        "ss"
      ],
      [
        "▁be",
        "yond"
      ],
      [
        "▁cour",
        "tesy"
      ],
      [
        "▁laugh",
        "ing"
      ],
      [
        "▁fl",
        "ut"
      ],
      [
        "a",
        "ri"
      ],
      [
        "▁p",
        "a"
      ],
      [
        "rac",
        "ter"
      ],
      [
        "▁life",
        "."
      ],
      [
        "▁sn",
        "uck"
      ],
      [
        "▁mo",
        "on"
      ],
      [
        "ult",
        "ured"
      ],
      [
        "▁s",
        "ign"
      ],
      [
        "▁cha",
        "racter"
      ],
      [
        "or",
        "."
      ],
      [
        "it",
        "s"
      ],
      [
        "▁happ",
        "y,"
      ],
      [
        "▁dev",
        "oted"
      ],
      [
        "▁sw",
        "ift"
      ],
      [
        "▁sur",
        "f"
      ],
      [
        "▁spread",
        "ing"
      ],
      [
        "▁ignor",
        "ance"
      ],
      [
        "▁s",
        "chool"
      ],
      [
        "▁whisp",
        "er"
      ],
      [
        "▁pira",
        "te"
      ],
      [
        "▁first",
        ","
      ],
      [
        "▁sav",
        "age"
      ],
      [
        "▁ear",
        "s"
      ],
      [
        "▁you",
        "'ll"
      ],
      [
        "▁d",
        "ug"
      ],
      [
        "▁bea",
        "k"
      ],
      [
        "▁",
        "edge"
      ],
      [
        "▁fast",
        "est"
      ],
      [
        "▁garden",
        "."
      ],
      [
        "▁H",
        "owever,"
      ],
      [
        "vent",
        "ure"
      ],
      [
        "▁wrong",
        ","
      ],
      [
        "▁wild",
        "flow"
      ],
      [
        "▁breez",
        "e,"
      ],
      [
        "i",
        "z"
      ],
      [
        "s",
        "w"
      ],
      [
        "▁c",
        "ultured"
      ],
      [
        "▁b",
        "ar"
      ],
      [
        "▁crystal",
        "s"
      ],
      [
        "▁all",
        "."
      ],
      [
        "u",
        "nd"
      ],
      [
        "▁mo",
        "ved"
      ],
      [
        "d",
        "y"
      ],
      [
        "a",
        "ked"
      ],
      [
        "▁fast",
        "er"
      ],
      [
        "▁dem",
        "and"
      ],
      [
        "▁f",
        "ut"
      ],
      [
        "▁tal",
        "king"
      ],
      [
        "▁be",
        "low"
      ],
      [
        "▁\"M",
        "aybe"
      ],
      [
        "▁re",
        "p"
      ],
      [
        "▁fut",
        "ure"
      ],
      [
        "▁en",
        "em"
      ],
      [
        "▁le",
        "g"
      ],
      [
        "at",
        "er"
      ],
      [
        "▁r",
        "ed"
      ],
      [
        "▁earn",
        "s"
      ],
      [
        "▁pu",
        "zz"
      ],
      [
        "y",
        "ard"
      ],
      [
        "▁th",
        "ree"
      ],
      [
        "▁together",
        ".\n</story>"
      ],
      [
        "et",
        "h"
      ],
      [
        "▁inv",
        "it"
      ],
      [
        "ie",
        "f"
      ],
      [
        "▁pat",
        "ch"
      ],
      [
        "▁dist",
        "ance"
      ],
      [
        "▁v",
        "ines"
      ],
      [
        "▁bird",
        "'s"
      ],
      [
        "c",
        "l"
      ],
      [
        "-",
        "m"
      ],
      [
        "▁st",
        "ret"
      ],
      [
        "▁gl",
        "en"
      ],
      [
        "▁sen",
        "sible"
      ],
      [
        "▁my",
        "ster"
      ],
      [
        "▁H",
        "um"
      ],
      [
        "▁S",
        "ea"
      ],
      [
        "▁creat",
        "ed"
      ],
      [
        "s,",
        "\""
      ],
      [
        "▁in",
        "."
      ],
      [
        "▁e",
        "ld"
      ],
      [
        "ea",
        "u"
      ],
      [
        "▁F",
        "l"
      ],
      [
        "▁find",
        "ing"
      ],
      [
        "le",
        "t"
      ],
      [
        "v",
        "ed,"
      ],
      [
        "▁place",
        ","
      ],
      [
        "▁pre",
        "cious"
      ],
      [
        "▁S",
        "low"
      ],
      [
        "am",
        "ond"
      ],
      [
        "▁di",
        "amond"
      ],
      [
        "▁word",
        "s."
      ],
      [
        "▁pat",
        "ience"
      ],
      [
        "▁the",
        "se"
      ],
      [
        "▁argu",
        "ed"
      ],
      [
        "▁small",
        ","
      ],
      [
        "u",
        "nder"
      ],
      [
        "▁ca",
        "use"
      ],
      [
        "▁explor",
        "ing,"
      ],
      [
        "uri",
        "ous"
      ],
      [
        "▁happ",
        "iness"
      ],
      [
        "▁sp",
        "l"
      ],
      [
        "▁h",
        "ive"
      ],
      [
        "▁ro",
        "ar"
      ],
      [
        "▁sus",
        "p"
      ],
      [
        "ty",
        "ard"
      ],
      [
        "▁you",
        ".\"\n\nThe"
      ],
      [
        "▁fisherm",
        "en"
      ],
      [
        "▁war",
        "n"
      ],
      [
        "▁for",
        "th"
      ],
      [
        "ran",
        "ce"
      ],
      [
        "▁wa",
        "y."
      ],
      [
        "▁forgiven",
        "ess"
      ],
      [
        "▁ea",
        "ting"
      ],
      [
        "▁\"You",
        "r"
      ],
      [
        "re",
        "n"
      ],
      [
        "▁rock",
        ","
      ],
      [
        "▁ship",
        "yard"
      ],
      [
        "▁F",
        "or"
      ],
      [
        "▁truth",
        "."
      ],
      [
        "▁plat",
        "eau"
      ],
      [
        "▁cour",
        "tyard"
      ],
      [
        "ak",
        "er"
      ],
      [
        "▁ob",
        "ser"
      ],
      [
        "▁fl",
        "ood"
      ],
      [
        "▁sc",
        "ent"
      ],
      [
        "▁\"P",
        "lease"
      ],
      [
        "▁suc",
        "cess"
      ],
      [
        "▁bird",
        ","
      ],
      [
        "▁p",
        "ain"
      ],
      [
        "▁sh",
        "iver"
      ],
      [
        "▁R",
        "e"
      ],
      [
        "▁adv",
        "ice"
      ],
      [
        "▁ea",
        "ger"
      ],
      [
        "▁fish",
        "ing"
      ],
      [
        "▁h",
        "u"
      ],
      [
        "▁tw",
        "ink"
      ],
      [
        "▁Sn",
        "ake"
      ],
      [
        "▁back",
        "."
      ],
      [
        "▁how",
        "ever,"
      ],
      [
        "▁ob",
        "edient"
      ],
      [
        "▁appear",
        "ed"
      ],
      [
        "▁strugg",
        "led"
      ],
      [
        "▁return",
        "ed,"
      ],
      [
        "▁st",
        "art"
      ],
      [
        "▁sha",
        "pes"
      ],
      [
        "it",
        "able"
      ],
      [
        "▁gra",
        "s"
      ],
      [
        "▁loud",
        "er"
      ],
      [
        "▁B",
        "ear"
      ],
      [
        "▁wind",
        "ing"
      ],
      [
        "▁for",
        "ward"
      ],
      [
        "▁drag",
        "on"
      ],
      [
        "ou",
        "n"
      ],
      [
        "▁s",
        "li"
      ],
      [
        "▁enchan",
        "ted"
      ],
      [
        "▁h",
        "ug"
      ],
      [
        "▁e",
        "mer"
      ],
      [
        "▁sp",
        "arrow"
      ],
      [
        "t",
        "ion"
      ],
      [
        "uth",
        "less"
      ],
      [
        "▁invit",
        "es"
      ],
      [
        "▁tell",
        "ing"
      ],
      [
        "▁thought",
        "."
      ],
      [
        "▁",
        "\n\nThe"
      ],
      [
        "▁together",
        ".\""
      ],
      [
        "▁d",
        "aring"
      ],
      [
        "▁an",
        "n"
      ],
      [
        "▁con",
        "s"
      ],
      [
        "▁wh",
        "i"
      ],
      [
        "▁ch",
        "ild"
      ],
      [
        "▁de",
        "eds"
      ],
      [
        "c",
        "ent"
      ],
      [
        "z",
        "en"
      ],
      [
        "▁ar",
        "rogan"
      ],
      [
        "▁scar",
        "ed."
      ],
      [
        "▁happ",
        "ily"
      ],
      [
        "oo",
        "t"
      ],
      [
        "k",
        "y"
      ],
      [
        "mb",
        "it"
      ],
      [
        "▁family",
        "."
      ],
      [
        "ou",
        "s,"
      ],
      [
        "▁sh",
        "own"
      ],
      [
        "▁ri",
        "val"
      ],
      [
        "▁p",
        "rudent"
      ],
      [
        "▁you",
        ",\""
      ],
      [
        "▁celebra",
        "te"
      ],
      [
        "▁sav",
        "ann"
      ],
      [
        "▁tre",
        "es."
      ],
      [
        "▁l",
        "et's"
      ],
      [
        "▁to",
        "ward"
      ],
      [
        "▁jungle",
        ","
      ],
      [
        "▁clever",
        "ness"
      ],
      [
        "▁s",
        "ill"
      ],
      [
        "▁your",
        "self"
      ],
      [
        "▁reef",
        ","
      ],
      [
        "is",
        "ion"
      ],
      [
        "**\n\n",
        "Deep"
      ],
      [
        "pl",
        "om"
      ],
      [
        "▁chan",
        "ged"
      ],
      [
        "▁fe",
        "et"
      ],
      [
        "▁rock",
        "."
      ],
      [
        "el",
        "ing"
      ],
      [
        "▁sand",
        "y"
      ],
      [
        "l",
        "er"
      ],
      [
        "▁pro",
        "p"
      ],
      [
        "▁ha",
        "m"
      ],
      [
        "app",
        "y"
      ],
      [
        "▁imp",
        "ress"
      ],
      [
        "▁bree",
        "ze"
      ],
      [
        "▁friendship",
        "."
      ],
      [
        "▁bea",
        "t"
      ],
      [
        "▁vis",
        "ited"
      ],
      [
        "▁Shar",
        "p"
      ],
      [
        "▁qu",
        "ell"
      ],
      [
        "▁\"B",
        "e"
      ],
      [
        "▁stick",
        "s"
      ],
      [
        "▁toward",
        "s"
      ],
      [
        "it",
        "ted"
      ],
      [
        "▁you",
        ".\""
      ],
      [
        "▁field",
        ","
      ],
      [
        "▁out",
        "."
      ],
      [
        "e",
        "eling"
      ],
      [
        "st",
        "ra"
      ],
      [
        "▁v",
        "icious"
      ],
      [
        "▁T",
        "hat's"
      ],
      [
        "▁hun",
        "g"
      ],
      [
        "▁real",
        "ly"
      ],
      [
        "▁protect",
        "ing"
      ],
      [
        "▁In",
        "stead"
      ],
      [
        "▁l",
        "ay"
      ],
      [
        "▁tang",
        "led"
      ],
      [
        "▁more",
        "."
      ],
      [
        "▁rest",
        "less"
      ],
      [
        "▁wa",
        "y,"
      ],
      [
        "▁safe",
        "."
      ],
      [
        "a",
        "me"
      ],
      [
        "▁cover",
        "ed"
      ],
      [
        "▁O",
        "c"
      ],
      [
        "o",
        "me"
      ],
      [
        "ra",
        "ss"
      ],
      [
        "▁con",
        "ceited"
      ],
      [
        "▁t",
        "est"
      ],
      [
        "▁river",
        "bank"
      ],
      [
        "mbit",
        "ious"
      ],
      [
        "▁char",
        "itable"
      ],
      [
        "▁stret",
        "ched"
      ],
      [
        "▁lone",
        "ly"
      ],
      [
        "▁whi",
        "ch"
      ],
      [
        "▁B",
        "ird"
      ],
      [
        "and",
        "-"
      ],
      [
        "▁m",
        "ea"
      ],
      [
        "▁ad",
        "venture"
      ],
      [
        "▁p",
        "ast"
      ],
      [
        "▁w",
        "ound"
      ],
      [
        "le",
        "."
      ],
      [
        "-",
        "and-"
      ],
      [
        "▁p",
        "ut"
      ],
      [
        "re",
        "et"
      ],
      [
        "▁grass",
        "land"
      ],
      [
        "▁I",
        "'ve"
      ],
      [
        "▁ro",
        "om"
      ],
      [
        "▁re",
        "ach"
      ],
      [
        "▁sh",
        "ook"
      ],
      [
        "▁cra",
        "fty"
      ],
      [
        "▁gra",
        "cious"
      ],
      [
        "▁grove",
        ","
      ],
      [
        "▁p",
        "ort"
      ],
      [
        "▁go",
        "ing"
      ],
      [
        "▁friends.",
        "\n</story>"
      ],
      [
        "▁fight",
        "ing"
      ],
      [
        "▁see",
        "m"
      ],
      [
        "▁ste",
        "pp"
      ],
      [
        "▁truth",
        ","
      ],
      [
        "▁together",
        ".\"\n\nThe"
      ],
      [
        "▁ha",
        "ving"
      ],
      [
        "▁bl",
        "ock"
      ],
      [
        "▁d",
        "ry"
      ],
      [
        "▁sear",
        "ch"
      ],
      [
        "get",
        "ic"
      ],
      [
        "▁fro",
        "zen"
      ],
      [
        "▁N",
        "o"
      ],
      [
        "▁r",
        "uthless"
      ],
      [
        "re",
        "nt"
      ],
      [
        "▁p",
        "ra"
      ],
      [
        "▁libra",
        "ry"
      ],
      [
        "▁fox",
        "'s"
      ],
      [
        "▁c",
        "orn"
      ],
      [
        "er",
        "r"
      ],
      [
        "▁E",
        "x"
      ],
      [
        "on",
        "ed"
      ],
      [
        "▁tea",
        "ch"
      ],
      [
        "a",
        "!"
      ],
      [
        "ri",
        "ous"
      ],
      [
        "▁sad",
        ","
      ],
      [
        "▁ne",
        "ed."
      ],
      [
        "▁swamp",
        ","
      ],
      [
        "▁flow",
        "er,"
      ],
      [
        "▁fortres",
        "s,"
      ],
      [
        "▁d",
        "r"
      ],
      [
        "er",
        "getic"
      ],
      [
        "▁forgot",
        "ten"
      ],
      [
        "▁ta",
        "ught"
      ],
      [
        "▁buz",
        "zing"
      ],
      [
        "▁say",
        ","
      ],
      [
        "w",
        "here"
      ],
      [
        "aw",
        "k"
      ],
      [
        "▁breat",
        "h"
      ],
      [
        "▁cou",
        "nt"
      ],
      [
        "▁cany",
        "on"
      ],
      [
        "▁castle",
        "'s"
      ],
      [
        "s",
        "hin"
      ],
      [
        "▁fl",
        "our"
      ],
      [
        "▁squirrel",
        ","
      ],
      [
        "▁m",
        "es"
      ],
      [
        "▁side",
        ","
      ],
      [
        "▁ro",
        "am"
      ],
      [
        "er",
        "ry"
      ],
      [
        "ow",
        "s"
      ],
      [
        "▁plan",
        "."
      ],
      [
        "▁ru",
        "ff"
      ],
      [
        "▁carrot",
        "s"
      ],
      [
        "▁pass",
        "ion"
      ],
      [
        "▁cur",
        "rent"
      ],
      [
        "▁sk",
        "y"
      ],
      [
        "▁near",
        "b"
      ],
      [
        "mb",
        "ol"
      ],
      [
        "▁rock",
        "y"
      ],
      [
        "▁sy",
        "mbol"
      ],
      [
        "▁over",
        "joy"
      ],
      [
        "se",
        "ek"
      ],
      [
        "▁S",
        "c"
      ],
      [
        "▁pers",
        "pect"
      ],
      [
        "**\n\n",
        "On"
      ],
      [
        ".\n\nH",
        "owever,"
      ],
      [
        "▁fe",
        "w"
      ],
      [
        "▁illus",
        "ions"
      ],
      [
        "▁wal",
        "ked"
      ],
      [
        "-and-",
        "seek"
      ],
      [
        "▁hide",
        "-and-seek"
      ],
      [
        "▁butter",
        "flies"
      ],
      [
        "▁su",
        "ch"
      ],
      [
        "ust",
        "rious"
      ],
      [
        "▁bro",
        "ke"
      ],
      [
        "▁f",
        "right"
      ],
      [
        "us",
        "y"
      ],
      [
        "v",
        "o"
      ],
      [
        "m",
        "ore"
      ],
      [
        "▁any",
        "more"
      ],
      [
        "▁pers",
        "u"
      ],
      [
        "▁conf",
        "ess"
      ],
      [
        "▁fear",
        "."
      ],
      [
        "und",
        "ra"
      ],
      [
        "b",
        "ea"
      ],
      [
        "▁H",
        "appy"
      ],
      [
        "▁one",
        "."
      ],
      [
        "ou",
        "b"
      ],
      [
        "▁prom",
        "is"
      ],
      [
        "▁snat",
        "ched"
      ],
      [
        "▁castle",
        ","
      ],
      [
        "▁problem",
        "s"
      ],
      [
        "plom",
        "atic"
      ],
      [
        "▁kind",
        ","
      ],
      [
        "▁play",
        "."
      ],
      [
        "▁L",
        "o"
      ],
      [
        "▁sea",
        ","
      ],
      [
        "▁disc",
        "reet"
      ],
      [
        "he",
        "t"
      ],
      [
        "ri",
        "c"
      ],
      [
        "v",
        "i"
      ],
      [
        "▁",
        "hat"
      ],
      [
        "het",
        "ic"
      ],
      [
        "v",
        "in"
      ],
      [
        "s.\"",
        "\n\n"
      ],
      [
        "▁she",
        "'d"
      ],
      [
        "▁S",
        "un"
      ],
      [
        "▁savann",
        "a"
      ],
      [
        "▁in",
        "te"
      ],
      [
        "▁passion",
        "ate"
      ],
      [
        "me",
        "ll"
      ],
      [
        "▁who",
        "le"
      ],
      [
        "p",
        "o"
      ],
      [
        "pt",
        "im"
      ],
      [
        "▁rel",
        "entless"
      ],
      [
        "▁treasure",
        "s."
      ],
      [
        "▁share",
        ","
      ],
      [
        "▁tra",
        "d"
      ],
      [
        "▁day",
        "."
      ],
      [
        "as",
        "ive"
      ],
      [
        "▁herself",
        ","
      ],
      [
        "▁shou",
        "ted"
      ],
      [
        "▁came",
        ","
      ],
      [
        "ven",
        "ge"
      ],
      [
        "ist",
        "ent"
      ],
      [
        "▁con",
        "vin"
      ],
      [
        "▁F",
        "riend"
      ],
      [
        "▁tall",
        ","
      ],
      [
        "onke",
        "y,"
      ],
      [
        "b",
        "rus"
      ],
      [
        "r",
        "ine"
      ],
      [
        "pl",
        "ace"
      ],
      [
        "▁att",
        "ent"
      ],
      [
        "▁a",
        "vo"
      ],
      [
        "and",
        "oned"
      ],
      [
        "▁everyone",
        "'s"
      ],
      [
        "li",
        "ke"
      ],
      [
        "▁d",
        "oub"
      ],
      [
        "▁villa",
        "ger"
      ],
      [
        "▁valle",
        "y,"
      ],
      [
        "▁re",
        "li"
      ],
      [
        "ation",
        "s"
      ],
      [
        ".\n\n",
        "F"
      ],
      [
        "▁said",
        ".\n\nThe"
      ],
      [
        "▁meadow",
        ","
      ],
      [
        "▁wal",
        "k"
      ],
      [
        "▁ac",
        "orn"
      ],
      [
        "▁win",
        "ter"
      ],
      [
        "b",
        "ut"
      ],
      [
        "▁",
        "**"
      ],
      [
        "▁un",
        "f"
      ],
      [
        "▁se",
        "eds"
      ],
      [
        "▁dis",
        "p"
      ],
      [
        ".\n\n",
        "T"
      ],
      [
        "▁gu",
        "ided"
      ],
      [
        "ptim",
        "ist"
      ],
      [
        "if",
        "ied"
      ],
      [
        "▁th",
        "ief"
      ],
      [
        "▁beaver",
        "'s"
      ],
      [
        "▁strong",
        "."
      ],
      [
        "▁angry",
        "."
      ],
      [
        "▁pol",
        "ar"
      ],
      [
        "▁li",
        "ked"
      ],
      [
        "▁conf",
        "used"
      ],
      [
        "c",
        "y"
      ],
      [
        "▁to",
        "u"
      ],
      [
        "▁cooper",
        "ative"
      ],
      [
        "▁under",
        "brus"
      ],
      [
        "▁bring",
        "ing"
      ],
      [
        "ol",
        "en"
      ],
      [
        "▁friendship",
        ".\n</story>"
      ],
      [
        "▁scar",
        "ed,"
      ],
      [
        "▁ent",
        "rance"
      ],
      [
        "▁st",
        "olen"
      ],
      [
        "▁so",
        ","
      ],
      [
        "am",
        "es"
      ],
      [
        "our",
        "ce"
      ],
      [
        "▁caver",
        "n,"
      ],
      [
        "▁Oc",
        "topus"
      ],
      [
        "▁opp",
        "ression"
      ],
      [
        "▁dig",
        "ging"
      ],
      [
        "▁susp",
        "ic"
      ],
      [
        "▁happ",
        "ines"
      ],
      [
        "▁ex",
        "p"
      ],
      [
        "▁ho",
        "p"
      ],
      [
        "▁rabbit",
        "s,"
      ],
      [
        "▁Go",
        "at"
      ],
      [
        "▁sa",
        "ved"
      ],
      [
        "ation",
        ","
      ],
      [
        "▁worri",
        "ed."
      ],
      [
        "▁an",
        "sw"
      ],
      [
        "▁beaver",
        "s"
      ],
      [
        "ow",
        "ed"
      ],
      [
        "▁down",
        "."
      ],
      [
        "▁fru",
        "stra"
      ],
      [
        "▁Dis",
        "loyal"
      ],
      [
        "▁We",
        "'re"
      ],
      [
        "m",
        "ble"
      ],
      [
        "▁mea",
        "nt"
      ],
      [
        "▁t",
        "undra"
      ],
      [
        "▁W",
        "ood"
      ],
      [
        "▁c",
        "hat"
      ],
      [
        "▁ref",
        "us"
      ],
      [
        "▁sl",
        "ither"
      ],
      [
        "▁in",
        "t"
      ],
      [
        "▁bond",
        "s"
      ],
      [
        "▁sto",
        "le"
      ],
      [
        "▁than",
        "k"
      ],
      [
        "▁scor",
        "ching"
      ],
      [
        "▁rain",
        "b"
      ],
      [
        "▁big",
        "ger"
      ],
      [
        "▁ar",
        "ms"
      ],
      [
        "▁Sp",
        "ark"
      ],
      [
        "▁farmer",
        "'s"
      ],
      [
        "▁myster",
        "ious"
      ],
      [
        "▁soft",
        ","
      ],
      [
        "i",
        "an"
      ],
      [
        "▁way",
        "s"
      ],
      [
        "▁wa",
        "ddled"
      ],
      [
        "▁ston",
        "es,"
      ],
      [
        "▁ca",
        "used"
      ],
      [
        "i",
        "zing"
      ],
      [
        "▁market",
        "place"
      ],
      [
        "▁sco",
        "ff"
      ],
      [
        "▁r",
        "ushed"
      ],
      [
        "cer",
        "ning"
      ],
      [
        "ptimist",
        "ic"
      ],
      [
        "▁bus",
        "h"
      ],
      [
        "▁valu",
        "e"
      ],
      [
        "iv",
        "ity"
      ],
      [
        "▁bird",
        "s."
      ],
      [
        "▁overhe",
        "ard"
      ],
      [
        "▁be",
        "ha"
      ],
      [
        "▁dec",
        "or"
      ],
      [
        "app",
        "ing"
      ],
      [
        "ion",
        "s."
      ],
      [
        "▁mu",
        "d"
      ],
      [
        "p",
        "ed"
      ],
      [
        "▁forth",
        "right"
      ],
      [
        "▁The",
        "re"
      ],
      [
        "▁child",
        "ren"
      ],
      [
        "▁carry",
        "ing"
      ],
      [
        "▁persu",
        "asive"
      ],
      [
        "▁cri",
        "ed"
      ],
      [
        "▁ba",
        "by"
      ],
      [
        "▁B",
        "usy"
      ],
      [
        "▁deser",
        "ves"
      ],
      [
        "▁re",
        "venge"
      ],
      [
        "▁self",
        "less"
      ],
      [
        "▁creat",
        "ing"
      ],
      [
        "c",
        "ted"
      ],
      [
        "ec",
        "is"
      ],
      [
        "▁ins",
        "p"
      ],
      [
        "▁ab",
        "andoned"
      ],
      [
        "▁sun",
        "-"
      ],
      [
        "f",
        "ic"
      ],
      [
        "▁fair",
        "ness"
      ],
      [
        "at",
        "ch"
      ],
      [
        "▁sh",
        "rine"
      ],
      [
        "▁help",
        "s"
      ],
      [
        "▁dign",
        "ified"
      ],
      [
        "▁keep",
        "s"
      ],
      [
        "▁Shar",
        "k"
      ],
      [
        "▁un",
        "like"
      ],
      [
        "▁storm",
        "."
      ],
      [
        "▁Go",
        "lden"
      ],
      [
        "▁e",
        "vent"
      ],
      [
        "rop",
        "ical"
      ],
      [
        "▁me",
        "."
      ],
      [
        "▁sill",
        "y"
      ],
      [
        "▁perspect",
        "ive"
      ],
      [
        "▁sh",
        "y"
      ],
      [
        "▁ve",
        "nd"
      ],
      [
        "under",
        "st"
      ],
      [
        "▁Instead",
        ","
      ],
      [
        ".\n\n\"I",
        "'m"
      ],
      [
        "▁kind",
        "."
      ],
      [
        "▁fo",
        "g"
      ],
      [
        "▁spark",
        "ly"
      ],
      [
        "▁ha",
        "ll"
      ],
      [
        "ce",
        "p"
      ],
      [
        "▁mag",
        "ic"
      ],
      [
        "▁sc",
        "ur"
      ],
      [
        "a",
        "use"
      ],
      [
        "▁surpris",
        "ed."
      ],
      [
        "▁knock",
        "ing"
      ],
      [
        "▁P",
        "roud"
      ],
      [
        "▁cloud",
        "s"
      ],
      [
        "mp",
        "at"
      ],
      [
        "▁himself",
        "."
      ],
      [
        "▁app",
        "ea"
      ],
      [
        "▁rebell",
        "ious"
      ],
      [
        "▁po",
        "is"
      ],
      [
        "▁sm",
        "art"
      ],
      [
        "▁sil",
        "ence"
      ],
      [
        "▁dif",
        "fic"
      ],
      [
        "mb",
        "led"
      ],
      [
        "▁agreement",
        ","
      ],
      [
        "a",
        "ces"
      ],
      [
        "▁m",
        "ur"
      ],
      [
        "▁har",
        "bor"
      ],
      [
        "▁temple",
        "."
      ],
      [
        "▁gu",
        "ilt"
      ],
      [
        "▁bar",
        "ri"
      ],
      [
        "▁wind",
        "."
      ],
      [
        "ect",
        "s"
      ],
      [
        "▁\"",
        "E"
      ],
      [
        "▁away",
        ".\n\nThe"
      ],
      [
        "▁h",
        "it"
      ],
      [
        "▁rememb",
        "er"
      ],
      [
        "▁L",
        "ion"
      ],
      [
        "▁M",
        "onkey"
      ],
      [
        "▁m",
        "ice"
      ],
      [
        "▁n",
        "at"
      ],
      [
        "ec",
        "ause"
      ],
      [
        "ecis",
        "ive"
      ],
      [
        "▁land",
        "ed"
      ],
      [
        "▁too",
        ","
      ],
      [
        "▁old",
        ","
      ],
      [
        "▁ham",
        "let"
      ],
      [
        "▁curi",
        "osity"
      ],
      [
        "!\"\n\n",
        "But"
      ],
      [
        "▁on",
        "to"
      ],
      [
        "▁di",
        "plomatic"
      ],
      [
        "▁g",
        "one"
      ],
      [
        "▁bright",
        ","
      ],
      [
        "▁me",
        "!\""
      ],
      [
        "t",
        "ed,"
      ],
      [
        "▁sweet",
        "est"
      ],
      [
        "▁unlike",
        "ly"
      ],
      [
        "mp",
        "l"
      ],
      [
        "▁land",
        ","
      ],
      [
        "▁you",
        "?\""
      ],
      [
        "▁ru",
        "ined"
      ],
      [
        "▁g",
        "iant"
      ],
      [
        "a",
        "b"
      ],
      [
        "▁app",
        "les"
      ],
      [
        "▁fir",
        "m"
      ],
      [
        "▁qu",
        "est"
      ],
      [
        "▁l",
        "it"
      ],
      [
        "ar",
        "ed"
      ],
      [
        "▁pre",
        "ser"
      ],
      [
        "▁dis",
        "loyal"
      ],
      [
        "▁gent",
        "ly."
      ],
      [
        "▁wing",
        "s."
      ],
      [
        "▁\"O",
        "h,"
      ],
      [
        "▁wind",
        ","
      ],
      [
        "▁grow",
        "s"
      ],
      [
        "▁we",
        "ll"
      ],
      [
        "▁book",
        "s"
      ],
      [
        "▁pebb",
        "le"
      ],
      [
        "▁tre",
        "mbling"
      ],
      [
        "▁\"M",
        "y"
      ],
      [
        "▁re",
        "ck"
      ],
      [
        "▁tortoise",
        ","
      ],
      [
        "▁a",
        "mbitious"
      ],
      [
        "▁ground",
        "."
      ],
      [
        "▁</moral>\n<story>\n",
        "The"
      ],
      [
        "▁pro",
        "ved"
      ],
      [
        "le",
        "cted"
      ],
      [
        "▁ant",
        "s"
      ],
      [
        "▁mistak",
        "es,"
      ],
      [
        "▁cur",
        "se"
      ],
      [
        "▁st",
        "range"
      ],
      [
        "▁\"H",
        "a!"
      ],
      [
        "▁doub",
        "t"
      ],
      [
        "st",
        "ac"
      ],
      [
        "▁ru",
        "st"
      ],
      [
        "er",
        "s."
      ],
      [
        "er",
        "s,"
      ],
      [
        "ished",
        ","
      ],
      [
        "▁wing",
        "s,"
      ],
      [
        "▁wor",
        "ry,"
      ],
      [
        "pl",
        "ore"
      ],
      [
        "▁g",
        "em"
      ],
      [
        "plore",
        "r"
      ],
      [
        "▁see",
        ","
      ],
      [
        "▁bright",
        "ly"
      ],
      [
        "▁friends",
        ".\n\nThe"
      ],
      [
        "▁mis",
        "underst"
      ],
      [
        "▁ston",
        "es."
      ],
      [
        "u",
        "mp"
      ],
      [
        "▁arri",
        "ved,"
      ],
      [
        "▁Ex",
        "plorer"
      ],
      [
        "▁con",
        "qu"
      ],
      [
        "▁ind",
        "ustrious"
      ],
      [
        "▁scal",
        "es"
      ],
      [
        "▁follow",
        "ed"
      ],
      [
        "he",
        "st"
      ],
      [
        "▁sun",
        "bea"
      ],
      [
        "▁explore",
        "."
      ],
      [
        "▁\"H",
        "ow"
      ],
      [
        "▁mistak",
        "es."
      ],
      [
        "▁will",
        "ing"
      ],
      [
        "▁island",
        ","
      ],
      [
        "▁In",
        "side,"
      ],
      [
        "▁F",
        "ro"
      ],
      [
        ".\"\n\n",
        "Together,"
      ],
      [
        "▁t",
        "ropical"
      ],
      [
        "▁\"L",
        "ook"
      ],
      [
        "▁land",
        "s"
      ],
      [
        "▁exclaim",
        "ed."
      ],
      [
        "▁place",
        ".\n</story>"
      ],
      [
        "i",
        "ze"
      ],
      [
        "▁co",
        "ming"
      ],
      [
        "▁T",
        "urtle"
      ],
      [
        "▁delic",
        "ate"
      ],
      [
        "▁cre",
        "aked"
      ],
      [
        "e",
        "v"
      ],
      [
        "▁this",
        "."
      ],
      [
        "▁sh",
        "ock"
      ],
      [
        "▁fish",
        "'s"
      ],
      [
        "▁C",
        "row"
      ],
      [
        "▁gl",
        "isten"
      ],
      [
        "▁B",
        "ea"
      ],
      [
        "▁adm",
        "ired"
      ],
      [
        "end",
        "ing"
      ],
      [
        "▁w",
        "ea"
      ],
      [
        "cept",
        "ive"
      ],
      [
        "nes",
        "s."
      ],
      [
        "▁te",
        "eth"
      ],
      [
        "▁sp",
        "y"
      ],
      [
        "▁wildflow",
        "ers"
      ],
      [
        "▁ama",
        "zing"
      ],
      [
        "▁fo",
        "c"
      ],
      [
        "▁",
        "es"
      ],
      [
        "▁C",
        "urious"
      ],
      [
        "▁jewel",
        "s"
      ],
      [
        "▁B",
        "ull"
      ],
      [
        "▁hig",
        "her"
      ],
      [
        "▁cro",
        "ss"
      ],
      [
        "▁ho",
        "pped"
      ],
      [
        "▁mis",
        "sed"
      ],
      [
        "▁p",
        "eak"
      ],
      [
        "▁b",
        "rown"
      ],
      [
        "▁time",
        "."
      ],
      [
        "p",
        ","
      ],
      [
        "▁color",
        "s"
      ],
      [
        "▁G",
        "ullible"
      ],
      [
        "▁C",
        "on"
      ],
      [
        "▁even",
        "ing,"
      ],
      [
        "▁adm",
        "ira"
      ],
      [
        "▁s",
        "it"
      ],
      [
        "▁sco",
        "ld"
      ],
      [
        "memb",
        "er,"
      ],
      [
        "▁acc",
        "used"
      ],
      [
        "▁W",
        "olf"
      ],
      [
        "▁laughed",
        ","
      ],
      [
        "▁com",
        "es"
      ],
      [
        "▁ob",
        "stac"
      ],
      [
        "▁ey",
        "es,"
      ],
      [
        "▁lesson",
        ":"
      ],
      [
        "▁pro",
        "ving"
      ],
      [
        "▁H",
        "awk"
      ],
      [
        "▁monkey",
        "s"
      ],
      [
        "▁ac",
        "cep"
      ],
      [
        "▁shiver",
        "ing"
      ],
      [
        "▁forest",
        "."
      ],
      [
        "-m",
        "ind"
      ],
      [
        "▁protect",
        "ive"
      ],
      [
        "▁per",
        "ceptive"
      ],
      [
        "▁tow",
        "n"
      ],
      [
        "▁ti",
        "re"
      ],
      [
        "▁dr",
        "ink"
      ],
      [
        "▁everyone",
        "."
      ],
      [
        "▁inv",
        "ited"
      ],
      [
        "▁vast",
        ","
      ],
      [
        "▁cast",
        "ing"
      ],
      [
        "▁brave",
        "st"
      ],
      [
        "ic",
        "es"
      ],
      [
        "U",
        "nder"
      ],
      [
        "met",
        "im"
      ],
      [
        "▁lake",
        ","
      ],
      [
        "▁B",
        "o"
      ],
      [
        "▁ju",
        "ic"
      ],
      [
        "▁he",
        "ld"
      ],
      [
        "s",
        "ure"
      ],
      [
        "▁rev",
        "ea"
      ],
      [
        "w",
        "ater"
      ],
      [
        "a",
        "ged"
      ],
      [
        "▁reck",
        "less"
      ],
      [
        "ha",
        "pp"
      ],
      [
        "▁harmon",
        "y,"
      ],
      [
        "▁creat",
        "ivity"
      ],
      [
        "▁sle",
        "ep"
      ],
      [
        "▁co",
        "in"
      ],
      [
        "▁m",
        "eal"
      ],
      [
        "▁water",
        "s."
      ],
      [
        "ak",
        "es"
      ],
      [
        "ild",
        "ness"
      ],
      [
        "▁arri",
        "ved"
      ],
      [
        "▁",
        "J"
      ],
      [
        "▁\"W",
        "ho"
      ],
      [
        "▁hom",
        "es."
      ],
      [
        "▁un",
        "happ"
      ],
      [
        "▁heartbroken",
        "."
      ],
      [
        "▁wa",
        "ited"
      ],
      [
        "ran",
        "ces"
      ],
      [
        "▁ste",
        "pping"
      ],
      [
        "a",
        "king"
      ],
      [
        "▁sometim",
        "es"
      ],
      [
        "▁excitement",
        "."
      ],
      [
        "c",
        "il"
      ],
      [
        "▁bee",
        "h"
      ],
      [
        "▁beha",
        "vi"
      ],
      [
        "▁t",
        "orn"
      ],
      [
        "▁scar",
        "y"
      ],
      [
        "se",
        ","
      ],
      [
        "isten",
        "ce"
      ],
      [
        "▁confus",
        "ed."
      ],
      [
        "d",
        "ay"
      ],
      [
        "f",
        "ted"
      ],
      [
        "▁sha",
        "de"
      ],
      [
        "▁sk",
        "ill"
      ],
      [
        "▁e",
        "ff"
      ],
      [
        "▁dun",
        "es"
      ],
      [
        "in",
        "ted"
      ],
      [
        "▁waterfall",
        ","
      ],
      [
        "ss",
        "y"
      ],
      [
        "▁nodd",
        "ed."
      ],
      [
        "an",
        "ic"
      ],
      [
        "g",
        "r"
      ],
      [
        "v",
        "ant"
      ],
      [
        "▁G",
        "ener"
      ],
      [
        "▁char",
        "ge"
      ],
      [
        "▁understand",
        "ing."
      ],
      [
        "▁river",
        "."
      ],
      [
        "▁tire",
        "less"
      ],
      [
        "▁remind",
        "ing"
      ],
      [
        "gr",
        "ity"
      ],
      [
        "▁st",
        "ep"
      ],
      [
        "▁tim",
        "es"
      ],
      [
        "shin",
        "e"
      ],
      [
        "▁eld",
        "er"
      ],
      [
        "▁ea",
        "s"
      ],
      [
        "▁bal",
        "an"
      ],
      [
        "▁st",
        "ri"
      ],
      [
        "▁T",
        "o"
      ],
      [
        "▁comp",
        "et"
      ],
      [
        "▁lesson",
        "."
      ],
      [
        "▁it",
        ".\"\n\nThe"
      ],
      [
        "▁d",
        "ri"
      ],
      [
        "▁sunbea",
        "ms"
      ],
      [
        "▁appear",
        "ed,"
      ],
      [
        "▁hur",
        "ting"
      ],
      [
        "▁strong",
        "er,"
      ],
      [
        "▁sorry",
        "."
      ],
      [
        "▁betra",
        "yal"
      ],
      [
        "▁ch",
        "ir"
      ],
      [
        "ro",
        "ll"
      ],
      [
        "if",
        "ic"
      ],
      [
        "▁seagull",
        ","
      ],
      [
        "▁pick",
        "ed"
      ],
      [
        "▁last",
        "ing"
      ],
      [
        "▁repli",
        "ed"
      ],
      [
        "▁m",
        "ine,"
      ],
      [
        "le",
        "nd"
      ],
      [
        "▁argu",
        "e"
      ],
      [
        "r",
        "ite"
      ],
      [
        "▁A",
        "nt"
      ],
      [
        "▁imp",
        "ulsive"
      ],
      [
        "▁b",
        "ound"
      ],
      [
        "▁me",
        ".\"\n\nThe"
      ],
      [
        "▁cl",
        "aws"
      ],
      [
        "▁ruin",
        "s,"
      ],
      [
        "▁stand",
        "s"
      ],
      [
        "▁s",
        "ist"
      ],
      [
        "▁light",
        "s"
      ],
      [
        "▁m",
        "ut"
      ],
      [
        "▁B",
        "u"
      ],
      [
        "▁res",
        "pected"
      ],
      [
        "▁spider",
        "'s"
      ],
      [
        "▁ch",
        "o"
      ],
      [
        "▁wasteland",
        ","
      ],
      [
        "▁fa",
        "il"
      ],
      [
        "▁lea",
        "ves,"
      ],
      [
        "▁earn",
        "ed,"
      ],
      [
        "▁ar",
        "ctic"
      ],
      [
        "▁fl",
        "apping"
      ],
      [
        "▁inde",
        "pend"
      ],
      [
        ".\n\nS",
        "he"
      ],
      [
        "a",
        "ced"
      ],
      [
        "f",
        "ter"
      ],
      [
        "▁b",
        "lend"
      ],
      [
        "n",
        "o"
      ],
      [
        "▁disapp",
        "o"
      ],
      [
        "▁f",
        "ool"
      ],
      [
        "is",
        "sed"
      ],
      [
        "▁si",
        "b"
      ],
      [
        "▁rock",
        "s,"
      ],
      [
        "▁snake",
        ","
      ],
      [
        "▁f",
        "il"
      ],
      [
        "▁star",
        "s"
      ],
      [
        "ed",
        "s,"
      ],
      [
        "m",
        "y"
      ],
      [
        "▁me",
        "mor"
      ],
      [
        "▁together",
        ".\n\nThe"
      ],
      [
        "eck",
        "less"
      ],
      [
        "-mind",
        "ed"
      ],
      [
        "▁s",
        "ne"
      ],
      [
        "ation",
        "."
      ],
      [
        "▁fix",
        "ed"
      ],
      [
        "H",
        "igh"
      ],
      [
        "▁ruff",
        "led"
      ],
      [
        "▁sk",
        "y."
      ],
      [
        "▁village",
        "."
      ],
      [
        "▁beeh",
        "ive"
      ],
      [
        "▁crab",
        ","
      ],
      [
        "▁monaster",
        "y"
      ],
      [
        "▁\"P",
        "er"
      ],
      [
        "▁turn",
        "s"
      ],
      [
        "▁sn",
        "eak"
      ],
      [
        "▁climb",
        "ed"
      ],
      [
        "▁spe",
        "ed"
      ],
      [
        "▁g",
        "rin"
      ],
      [
        "▁persever",
        "ing"
      ],
      [
        "ra",
        "nt"
      ],
      [
        "▁scoff",
        "ed,"
      ],
      [
        "▁disapp",
        "ear"
      ],
      [
        "▁S",
        "eal"
      ],
      [
        "un",
        "g"
      ],
      [
        "fore",
        "st"
      ],
      [
        "▁dest",
        "in"
      ],
      [
        "▁snow",
        "y"
      ],
      [
        "ll",
        "y"
      ],
      [
        "▁now",
        ","
      ],
      [
        "▁p",
        "ee"
      ],
      [
        "▁She",
        "'d"
      ],
      [
        "▁sur",
        "v"
      ],
      [
        "▁tea",
        "ches"
      ],
      [
        "▁leg",
        "s"
      ],
      [
        "▁bear",
        ","
      ],
      [
        "▁nat",
        "ure"
      ],
      [
        "n",
        "ific"
      ],
      [
        "th",
        "ing."
      ],
      [
        "nific",
        "ent"
      ],
      [
        "▁count",
        "ry"
      ],
      [
        "ev",
        "olent"
      ],
      [
        "um",
        "ent"
      ],
      [
        "▁slither",
        "ed"
      ],
      [
        "▁\"A",
        "nd"
      ],
      [
        "▁R",
        "eckless"
      ],
      [
        "▁bran",
        "ches"
      ],
      [
        "▁lea",
        "f"
      ],
      [
        "▁mag",
        "nificent"
      ],
      [
        "▁solut",
        "ion"
      ],
      [
        "▁penguin",
        "s"
      ],
      [
        "▁tunnel",
        "s"
      ],
      [
        "▁thing",
        "s."
      ],
      [
        "▁water",
        "s,"
      ],
      [
        "g",
        "gle"
      ],
      [
        "▁our",
        "sel"
      ],
      [
        "it",
        "ion"
      ],
      [
        "▁r",
        "ul"
      ],
      [
        "ng",
        "ing"
      ],
      [
        "▁one",
        ","
      ],
      [
        "▁b",
        "erry"
      ],
      [
        "▁air",
        "."
      ],
      [
        "▁h",
        "orn"
      ],
      [
        "▁scar",
        "ing"
      ],
      [
        "▁independ",
        "ent"
      ],
      [
        "nes",
        "s,"
      ],
      [
        "▁friend",
        "'s"
      ],
      [
        "▁friends",
        ".\n\nOne"
      ],
      [
        "▁warm",
        "th"
      ],
      [
        "▁appea",
        "rances"
      ],
      [
        "▁exc",
        "ited"
      ],
      [
        "▁argu",
        "ing"
      ],
      [
        "▁t",
        "erri"
      ],
      [
        "▁ind",
        "ecisive"
      ],
      [
        "▁rain",
        "forest"
      ],
      [
        "▁li",
        "m"
      ],
      [
        "▁share",
        "."
      ],
      [
        "▁rumor",
        "s"
      ],
      [
        "▁plant",
        "s"
      ],
      [
        "▁ho",
        "pes"
      ],
      [
        "▁E",
        "n"
      ],
      [
        "▁carefull",
        "y,"
      ],
      [
        "▁dign",
        "ity"
      ],
      [
        "▁s",
        "itu"
      ],
      [
        "▁need",
        "s"
      ],
      [
        "▁l",
        "ate"
      ],
      [
        "▁",
        "-"
      ],
      [
        "▁sun",
        ","
      ],
      [
        "▁G",
        "ift"
      ],
      [
        "▁asham",
        "ed,"
      ],
      [
        "▁they",
        "'re"
      ],
      [
        "▁a",
        "chie"
      ],
      [
        "▁suggest",
        "ed,"
      ],
      [
        "▁ca",
        "ret"
      ],
      [
        "▁b",
        "are"
      ],
      [
        "▁unf",
        "air"
      ],
      [
        "▁P",
        "l"
      ],
      [
        "▁s",
        "hat"
      ],
      [
        "▁sea",
        "s"
      ],
      [
        "▁treasure",
        "s,"
      ],
      [
        "▁\"N",
        "o"
      ],
      [
        "d",
        "ed"
      ],
      [
        "▁W",
        "atch"
      ],
      [
        "▁fa",
        "de"
      ],
      [
        "▁squirrel",
        "'s"
      ],
      [
        "▁car",
        "ried"
      ],
      [
        "▁mut",
        "ual"
      ],
      [
        "▁en",
        "ergetic"
      ],
      [
        "▁\"O",
        "h"
      ],
      [
        "h",
        "us"
      ],
      [
        "hus",
        "i"
      ],
      [
        "▁land",
        "."
      ],
      [
        "▁\"Wait",
        ","
      ],
      [
        "▁crab",
        "'s"
      ],
      [
        "▁B",
        "ad"
      ],
      [
        "▁light",
        "."
      ],
      [
        "▁enchan",
        "ting"
      ],
      [
        "▁Con",
        "ceited"
      ],
      [
        "▁appear",
        "ed."
      ],
      [
        "▁fear",
        ","
      ],
      [
        "▁un",
        "sure"
      ],
      [
        "▁surv",
        "ive"
      ],
      [
        "▁ben",
        "evolent"
      ],
      [
        "et",
        "al"
      ],
      [
        "▁har",
        "dest"
      ],
      [
        "▁You",
        "r"
      ],
      [
        "▁idea",
        "s"
      ],
      [
        "▁slow",
        "ly"
      ],
      [
        "metim",
        "es,"
      ],
      [
        "▁c",
        "ool"
      ],
      [
        "▁E",
        "a"
      ],
      [
        "▁pers",
        "istence"
      ],
      [
        "▁hero",
        "ic"
      ],
      [
        "▁stru",
        "ggle"
      ],
      [
        "▁fl",
        "aws"
      ],
      [
        "k",
        "issed"
      ],
      [
        "▁hun",
        "t"
      ],
      [
        "▁sp",
        "ace"
      ],
      [
        "!\"\n\n",
        "One"
      ],
      [
        "..",
        "."
      ],
      [
        "▁pers",
        "istent"
      ],
      [
        "▁tea",
        "se"
      ],
      [
        "▁island",
        "'s"
      ],
      [
        "▁t",
        "rove"
      ],
      [
        "▁\"H",
        "e"
      ],
      [
        "▁\"Please",
        ","
      ],
      [
        "▁sh",
        "rin"
      ],
      [
        "▁smile",
        "."
      ],
      [
        "▁un",
        "ite"
      ],
      [
        "▁cliff",
        ","
      ],
      [
        "▁ser",
        "ves"
      ],
      [
        "▁wrong",
        "."
      ],
      [
        "▁S",
        "to"
      ],
      [
        "ci",
        "ence"
      ],
      [
        "▁open",
        "-minded"
      ],
      [
        "▁c",
        "ent"
      ],
      [
        "▁distance",
        ","
      ],
      [
        "▁P",
        "er"
      ],
      [
        "▁har",
        "sh"
      ],
      [
        "▁cons",
        "cience"
      ],
      [
        "▁remind",
        "er"
      ],
      [
        "l",
        "it"
      ],
      [
        "est",
        "ival"
      ],
      [
        "▁wis",
        "er"
      ],
      [
        "▁ins",
        "olent"
      ],
      [
        "▁forward",
        ","
      ],
      [
        "▁inte",
        "grity"
      ],
      [
        "▁R",
        "o"
      ],
      [
        "▁Bad",
        "ger"
      ],
      [
        "▁sha",
        "me"
      ],
      [
        "a",
        "ra"
      ],
      [
        "▁bloo",
        "ming"
      ],
      [
        "se",
        "."
      ],
      [
        "▁wide",
        ","
      ],
      [
        "▁Ea",
        "gle"
      ],
      [
        "▁surf",
        "ace"
      ],
      [
        "▁se",
        "es"
      ],
      [
        "▁re",
        "w"
      ],
      [
        "▁re",
        "as"
      ],
      [
        "▁an",
        "g"
      ],
      [
        "▁act",
        "ually"
      ],
      [
        "▁Hum",
        "mingbird"
      ],
      [
        "▁tra",
        "ns"
      ],
      [
        "▁rem",
        "ained"
      ],
      [
        "▁coun",
        "cil"
      ],
      [
        "▁bear",
        "'s"
      ],
      [
        "▁F",
        "estival"
      ],
      [
        "m",
        "ong"
      ],
      [
        "s",
        "ol"
      ],
      [
        "▁pro",
        "ven"
      ],
      [
        "▁e",
        "qu"
      ],
      [
        "co",
        "m"
      ],
      [
        "▁hurt",
        "."
      ],
      [
        "▁sun-",
        "kissed"
      ],
      [
        "▁compassion",
        "ate"
      ],
      [
        "▁st",
        "al"
      ],
      [
        "▁\"",
        "Y"
      ],
      [
        "▁pull",
        "ed"
      ],
      [
        "▁w",
        "ither"
      ],
      [
        "▁g",
        "ullible"
      ],
      [
        "il",
        "ience"
      ],
      [
        "▁saf",
        "er"
      ],
      [
        "▁strong",
        "er."
      ],
      [
        "gg",
        "ed"
      ],
      [
        "▁rock",
        "s."
      ],
      [
        "▁rep",
        "air"
      ],
      [
        "▁a",
        "dd"
      ],
      [
        "▁he",
        "ar"
      ],
      [
        "▁d",
        "re"
      ],
      [
        "g",
        "ument"
      ],
      [
        "y",
        "ing"
      ],
      [
        "▁tast",
        "y"
      ],
      [
        "▁safet",
        "y"
      ],
      [
        "▁word",
        "s,"
      ],
      [
        "▁hug",
        "ged"
      ],
      [
        "▁special",
        "."
      ],
      [
        "▁right",
        ","
      ],
      [
        "▁butterfly",
        "'s"
      ],
      [
        "▁trick",
        "ed"
      ],
      [
        "▁n",
        "arrow"
      ],
      [
        "▁b",
        "ount"
      ],
      [
        "g",
        "round"
      ],
      [
        "▁breez",
        "e."
      ],
      [
        "▁obser",
        "vant"
      ],
      [
        "▁app",
        "le"
      ],
      [
        "▁lead",
        "er,"
      ],
      [
        ".\n\nW",
        "ith"
      ],
      [
        "ur",
        "b"
      ],
      [
        "▁ar",
        "gument"
      ],
      [
        "▁h",
        "oo"
      ],
      [
        "▁harmon",
        "y."
      ],
      [
        "▁H",
        "un"
      ],
      [
        "▁under",
        "water"
      ],
      [
        "▁Sea",
        "gull"
      ],
      [
        "oo",
        "th"
      ],
      [
        "▁en",
        "v"
      ],
      [
        "▁M",
        "y"
      ],
      [
        "▁read",
        "y"
      ],
      [
        "▁sun",
        "set"
      ],
      [
        "▁butterfly",
        ","
      ],
      [
        "▁sad",
        "ness"
      ],
      [
        "▁s",
        "mell"
      ],
      [
        "▁th",
        "ir"
      ],
      [
        "▁\"I",
        "'ve"
      ],
      [
        "▁it",
        "!\""
      ],
      [
        "▁snake",
        "'s"
      ],
      [
        "is",
        "es"
      ],
      [
        "▁p",
        "aws"
      ],
      [
        "▁rainb",
        "ow"
      ],
      [
        "▁rew",
        "rite"
      ],
      [
        "▁discover",
        "ing"
      ],
      [
        "▁avo",
        "id"
      ],
      [
        "▁themsel",
        "ves"
      ],
      [
        "▁wor",
        "ry"
      ],
      [
        "▁lone",
        "ly."
      ],
      [
        "▁",
        "round"
      ],
      [
        "ell",
        "o,"
      ],
      [
        "▁ang",
        "ri"
      ],
      [
        "le",
        "st"
      ],
      [
        "▁me",
        ".\""
      ],
      [
        "▁hungry",
        "."
      ],
      [
        "▁pro",
        "ve"
      ],
      [
        "▁juic",
        "iest"
      ],
      [
        "▁prop",
        "he"
      ],
      [
        "▁ch",
        "oose"
      ],
      [
        "r",
        "on"
      ],
      [
        "▁bro",
        "ther"
      ],
      [
        "▁seagull",
        "'s"
      ],
      [
        "▁cat",
        "ching"
      ],
      [
        "▁hard",
        ","
      ],
      [
        "▁s",
        "id"
      ],
      [
        "▁let",
        "ter"
      ],
      [
        "▁achie",
        "ve"
      ],
      [
        "▁heal",
        "ing"
      ],
      [
        "▁Sto",
        "at"
      ],
      [
        "▁way",
        "s."
      ],
      [
        "▁demand",
        "ed"
      ],
      [
        "▁bridge",
        ","
      ],
      [
        "ig",
        "ate"
      ],
      [
        "▁Gener",
        "ous"
      ],
      [
        "▁suc",
        "ces"
      ],
      [
        "▁bri",
        "d"
      ],
      [
        "▁A",
        "r"
      ],
      [
        "▁mis",
        "s"
      ],
      [
        "▁problem",
        "."
      ],
      [
        "▁octopus",
        ","
      ],
      [
        "▁coun",
        "sel"
      ],
      [
        "▁spr",
        "ing,"
      ],
      [
        "▁in",
        "cl"
      ],
      [
        "▁mur",
        "ky"
      ],
      [
        "▁ones",
        "elf"
      ],
      [
        "▁def",
        "iant"
      ],
      [
        "▁bare",
        "ly"
      ],
      [
        "▁watched",
        ","
      ],
      [
        "▁by",
        "."
      ],
      [
        "▁betra",
        "y"
      ],
      [
        "▁pass",
        "ed"
      ],
      [
        "un",
        "ted"
      ],
      [
        "▁belong",
        "ed"
      ],
      [
        "▁cliff",
        "side"
      ],
      [
        "▁e",
        "mb"
      ],
      [
        "▁grow",
        "led"
      ],
      [
        "▁trouble",
        ","
      ],
      [
        "▁bl",
        "ame"
      ],
      [
        "▁ch",
        "ick"
      ],
      [
        "▁su",
        "pp"
      ],
      [
        "ea",
        "king"
      ],
      [
        "▁every",
        "where"
      ],
      [
        "po",
        "ken"
      ],
      [
        "▁plan",
        "ted"
      ],
      [
        "▁more",
        ","
      ],
      [
        "▁ob",
        "j"
      ],
      [
        "husi",
        "ast"
      ],
      [
        "▁balan",
        "ces"
      ],
      [
        "ed.",
        "\n</story>"
      ],
      [
        "▁bo",
        "dy"
      ],
      [
        "▁sorry",
        ","
      ],
      [
        "ip",
        "ul"
      ],
      [
        "▁h",
        "ills"
      ],
      [
        "▁thinking",
        ","
      ],
      [
        "▁hu",
        "ddled"
      ],
      [
        "▁gu",
        "ide"
      ],
      [
        "ol",
        "c"
      ],
      [
        "▁D",
        "ef"
      ],
      [
        "▁har",
        "vest"
      ],
      [
        "▁stay",
        "ed"
      ],
      [
        "l",
        "ine,"
      ],
      [
        "▁refus",
        "ed,"
      ],
      [
        "▁reflect",
        "s"
      ],
      [
        "l",
        "oo"
      ],
      [
        "▁all",
        ","
      ],
      [
        "▁at",
        "e"
      ],
      [
        "ck",
        "et's"
      ],
      [
        "▁fe",
        "llow"
      ],
      [
        "▁jo",
        "y."
      ],
      [
        "▁deep",
        "er"
      ],
      [
        "▁learn",
        "s"
      ],
      [
        "▁w",
        "id"
      ],
      [
        "at",
        "ient"
      ],
      [
        "▁gra",
        "y"
      ],
      [
        "▁p",
        "ush"
      ],
      [
        "▁N",
        "ow,"
      ],
      [
        "▁dist",
        "urb"
      ],
      [
        "▁admira",
        "tion"
      ],
      [
        "▁forg",
        "iving"
      ],
      [
        "▁ear",
        "th"
      ],
      [
        "▁p",
        "aw"
      ],
      [
        "et",
        "op"
      ],
      [
        "▁m",
        "ildness"
      ],
      [
        "▁change",
        "."
      ],
      [
        "▁hesit",
        "ant"
      ],
      [
        "▁t",
        "ask"
      ],
      [
        "el",
        "s"
      ],
      [
        "▁reas",
        "on"
      ],
      [
        "▁c",
        "r"
      ],
      [
        "▁flo",
        "ated"
      ],
      [
        "▁t",
        "ear"
      ],
      [
        "c",
        "cent"
      ],
      [
        "ccent",
        "ric"
      ],
      [
        "▁open",
        "ed"
      ],
      [
        "▁tal",
        "ked"
      ],
      [
        "▁But",
        "ter"
      ],
      [
        "▁tre",
        "etop"
      ],
      [
        "den",
        "ly,"
      ],
      [
        "▁ruin",
        "s"
      ],
      [
        "▁glaci",
        "er"
      ],
      [
        "▁tortoise",
        "'s"
      ],
      [
        "▁badger",
        "'s"
      ],
      [
        "▁dis",
        "sol"
      ],
      [
        "▁branch",
        ","
      ],
      [
        "▁ne",
        "ed,"
      ],
      [
        "▁d",
        "ull"
      ],
      [
        "▁pl",
        "ease"
      ],
      [
        "▁happen",
        "ed."
      ],
      [
        "▁Help",
        "ful"
      ],
      [
        "▁carefull",
        "y."
      ],
      [
        "▁ru",
        "sty"
      ],
      [
        "▁sun",
        "flow"
      ],
      [
        "ha",
        "ps"
      ],
      [
        "▁hungry",
        ","
      ],
      [
        "▁eagle",
        "'s"
      ],
      [
        "▁dest",
        "iny"
      ],
      [
        "an",
        "y"
      ],
      [
        "▁ra",
        "sh"
      ],
      [
        "▁get",
        "s"
      ],
      [
        "▁angry",
        ","
      ],
      [
        "us",
        "hing"
      ],
      [
        "▁ann",
        "ual"
      ],
      [
        "ir",
        "t"
      ],
      [
        "▁dis",
        "cerning"
      ],
      [
        "▁sl",
        "id"
      ],
      [
        "husiast",
        "ic"
      ],
      [
        "ure",
        "s"
      ],
      [
        "▁monkey",
        "'s"
      ],
      [
        "▁branch",
        "."
      ],
      [
        "▁real",
        "izing"
      ],
      [
        "▁ho",
        "le"
      ],
      [
        "▁ign",
        "ore"
      ],
      [
        "▁garden",
        "'s"
      ],
      [
        "ipul",
        "ative"
      ],
      [
        "▁chan",
        "g"
      ],
      [
        "▁de",
        "w"
      ],
      [
        "▁p",
        "etal"
      ],
      [
        "▁e",
        "ccentric"
      ],
      [
        "▁fl",
        "ock"
      ],
      [
        "▁cra",
        "ck"
      ],
      [
        "▁oasis",
        ","
      ],
      [
        "▁w",
        "ish"
      ],
      [
        "▁mean",
        "."
      ],
      [
        "▁overjoy",
        "ed"
      ],
      [
        "▁safe",
        ","
      ],
      [
        "▁pira",
        "tes"
      ],
      [
        "p",
        "han"
      ],
      [
        "▁S",
        "ha"
      ],
      [
        "▁Def",
        "iant"
      ],
      [
        "▁sunlight",
        "."
      ],
      [
        "▁\"",
        "but"
      ],
      [
        "▁harmon",
        "ious"
      ],
      [
        "▁shelter",
        "."
      ],
      [
        "le",
        "phan"
      ],
      [
        "▁real",
        "ity"
      ],
      [
        "gg",
        "y"
      ],
      [
        "▁\"F",
        "riend"
      ],
      [
        "G",
        "entle"
      ],
      [
        "ir",
        "ing"
      ],
      [
        "▁Butter",
        "fly"
      ],
      [
        "in",
        "n"
      ],
      [
        "▁C",
        "ol"
      ],
      [
        "▁wait",
        "ing"
      ],
      [
        "▁differen",
        "c"
      ],
      [
        "▁m",
        "onkey,"
      ],
      [
        "▁farm",
        "land"
      ],
      [
        "▁friendship",
        ","
      ],
      [
        "a",
        "pped"
      ],
      [
        "▁D",
        "on't"
      ],
      [
        "▁n",
        "ut"
      ],
      [
        "▁it",
        ".\""
      ],
      [
        "▁vo",
        "ices"
      ],
      [
        "▁kind",
        "er"
      ],
      [
        "▁scur",
        "ried"
      ],
      [
        "▁fil",
        "tered"
      ],
      [
        "▁l",
        "ar"
      ],
      [
        "▁way",
        "s,"
      ],
      [
        "▁loud",
        "ly"
      ],
      [
        "so",
        "me"
      ],
      [
        "▁preser",
        "ves"
      ],
      [
        "▁bound",
        "ari"
      ],
      [
        "ur",
        "ing"
      ],
      [
        "▁se",
        "ll"
      ],
      [
        "▁Help",
        "er"
      ],
      [
        "▁sw",
        "ing"
      ],
      [
        "▁C",
        "a"
      ],
      [
        "▁careful",
        ","
      ],
      [
        "▁fortres",
        "s."
      ],
      [
        "▁oasis",
        "."
      ],
      [
        "▁break",
        "s"
      ],
      [
        "▁to",
        "ler"
      ],
      [
        "▁explain",
        "ed,"
      ],
      [
        "▁event",
        "ually"
      ],
      [
        "▁ocean",
        "'s"
      ],
      [
        "▁it",
        "!"
      ],
      [
        "▁dan",
        "c"
      ],
      [
        "▁sc",
        "at"
      ],
      [
        "▁L",
        "a"
      ],
      [
        "▁ground",
        ","
      ],
      [
        "▁M",
        "ouse"
      ],
      [
        "▁do",
        "or"
      ],
      [
        "▁hun",
        "ter"
      ],
      [
        "▁secret",
        "s,"
      ],
      [
        "▁cloud",
        "s,"
      ],
      [
        "ource",
        "ful"
      ],
      [
        "▁roll",
        "ing"
      ],
      [
        "▁it",
        ".\n\nThe"
      ],
      [
        "▁courage",
        "ous"
      ],
      [
        "▁go",
        "ld"
      ],
      [
        "▁boat",
        "s"
      ],
      [
        "▁Watch",
        "ful"
      ],
      [
        "▁v",
        "olc"
      ],
      [
        "▁work",
        "."
      ],
      [
        "▁ru",
        "les"
      ],
      [
        "p",
        "er"
      ],
      [
        "▁sn",
        "ail"
      ],
      [
        "▁me",
        ",\""
      ],
      [
        "▁gra",
        "b"
      ],
      [
        "▁H",
        "are"
      ],
      [
        "▁convin",
        "ced"
      ],
      [
        "▁eff",
        "ort"
      ],
      [
        "▁disc",
        "us"
      ],
      [
        "▁pois",
        "ons"
      ],
      [
        "▁stand",
        "ing"
      ],
      [
        "▁attent",
        "ion"
      ],
      [
        "▁us",
        "."
      ],
      [
        "▁ne",
        "igh"
      ],
      [
        "▁feather",
        "s,"
      ],
      [
        "▁benef",
        "its"
      ],
      [
        "▁fox",
        "."
      ],
      [
        "▁down",
        "fall"
      ],
      [
        "▁W",
        "h"
      ],
      [
        "sh",
        "ore"
      ],
      [
        "▁gu",
        "id"
      ],
      [
        "▁G",
        "ru"
      ],
      [
        "▁ar",
        "m"
      ],
      [
        "▁wa",
        "ves,"
      ],
      [
        "g",
        "rown"
      ],
      [
        "▁B",
        "ee"
      ],
      [
        "▁fur",
        "y"
      ],
      [
        "▁rel",
        "ations"
      ],
      [
        "▁relations",
        "hip"
      ],
      [
        "▁ha",
        "nging"
      ],
      [
        "▁st",
        "ra"
      ],
      [
        "▁d",
        "ro"
      ],
      [
        "n",
        "ot"
      ],
      [
        "ud",
        "denly,"
      ],
      [
        "▁be",
        "es,"
      ],
      [
        "▁\"Y",
        "es,"
      ],
      [
        "▁p",
        "ur"
      ],
      [
        "▁flow",
        "ed"
      ],
      [
        "▁dec",
        "ide"
      ],
      [
        "▁beaver",
        ","
      ],
      [
        "▁\"B",
        "ecause"
      ],
      [
        "▁wood",
        "s"
      ],
      [
        "▁es",
        "ca"
      ],
      [
        "▁to",
        "day"
      ],
      [
        "▁spot",
        "s"
      ],
      [
        "st",
        "er,"
      ],
      [
        "▁ga",
        "z"
      ],
      [
        "▁bl",
        "amed"
      ],
      [
        "▁how",
        "led"
      ],
      [
        "▁ga",
        "zed"
      ],
      [
        "▁th",
        "ough"
      ],
      [
        "▁benef",
        "it"
      ],
      [
        "▁ro",
        "se"
      ],
      [
        "▁shat",
        "tered"
      ],
      [
        "i",
        "res"
      ],
      [
        "▁us",
        ","
      ],
      [
        "▁col",
        "lected"
      ],
      [
        "▁foc",
        "used"
      ],
      [
        "▁greenhouse",
        ","
      ],
      [
        "▁time",
        "ly"
      ],
      [
        "▁himself",
        ","
      ],
      [
        "▁den",
        "se"
      ],
      [
        "mpat",
        "hetic"
      ],
      [
        "▁brid",
        "ges"
      ],
      [
        "▁tre",
        "mbled"
      ],
      [
        "▁con",
        "cer"
      ],
      [
        "▁sand",
        "."
      ],
      [
        "▁raccoon",
        "'s"
      ],
      [
        "▁neigh",
        "bor"
      ],
      [
        "▁flower",
        "."
      ],
      [
        "▁dun",
        "es,"
      ],
      [
        "▁build",
        "s"
      ],
      [
        "▁waterfall",
        "."
      ],
      [
        "▁ju",
        "dge"
      ],
      [
        "▁ga",
        "me"
      ],
      [
        "▁fl",
        "itted"
      ],
      [
        "▁turtle",
        ","
      ],
      [
        "▁enem",
        "ies"
      ],
      [
        "▁sn",
        "iff"
      ],
      [
        "▁reef",
        "."
      ],
      [
        "▁care",
        "less"
      ],
      [
        "▁agre",
        "ed."
      ],
      [
        "▁cove",
        ","
      ],
      [
        "▁st",
        "ead"
      ],
      [
        "▁ma",
        "p"
      ],
      [
        "▁grow",
        "ing"
      ],
      [
        "▁wall",
        "s,"
      ],
      [
        "▁duck",
        "s"
      ],
      [
        "▁S",
        "k"
      ],
      [
        "st",
        "ical"
      ],
      [
        "▁P",
        "ig"
      ],
      [
        "▁l",
        "an"
      ],
      [
        "▁wind",
        "ow"
      ],
      [
        "our",
        "ed"
      ],
      [
        "com",
        "es"
      ],
      [
        "▁through",
        "out"
      ],
      [
        "▁destroy",
        "ed"
      ],
      [
        "▁suspic",
        "ion"
      ],
      [
        "▁sw",
        "ir"
      ],
      [
        "▁res",
        "ilience"
      ],
      [
        "▁chir",
        "p"
      ],
      [
        "▁\"H",
        "ello,"
      ],
      [
        "▁enjoy",
        "ing"
      ],
      [
        "▁cra",
        "s"
      ],
      [
        "▁melod",
        "ies,"
      ],
      [
        "▁v",
        "owed"
      ],
      [
        "▁mo",
        "or"
      ],
      [
        "▁R",
        "oo"
      ],
      [
        "▁p",
        "ushed"
      ],
      [
        "▁Cl",
        "oud"
      ],
      [
        "▁terri",
        "ble"
      ],
      [
        "▁emb",
        "ar"
      ],
      [
        "he",
        "arted"
      ],
      [
        "▁outs",
        "poken"
      ],
      [
        "▁pee",
        "ked"
      ],
      [
        "▁cri",
        "cket's"
      ],
      [
        "▁fire",
        "flies"
      ],
      [
        "▁villager",
        "s,"
      ],
      [
        "▁Fro",
        "g"
      ],
      [
        "▁r",
        "unning"
      ],
      [
        "▁embar",
        "rass"
      ],
      [
        "▁selfless",
        "ness"
      ],
      [
        "▁arrogan",
        "t"
      ],
      [
        ".\n\n",
        "In"
      ],
      [
        "▁eagle",
        ","
      ],
      [
        "▁melod",
        "ies"
      ],
      [
        "▁dis",
        "aster"
      ],
      [
        "ion",
        "s,"
      ],
      [
        "▁N",
        "ow"
      ],
      [
        "▁sib",
        "ling"
      ],
      [
        "▁sha",
        "ke"
      ],
      [
        "▁res",
        "ourceful"
      ],
      [
        "▁rebu",
        "ilt"
      ],
      [
        "▁toler",
        "ance"
      ],
      [
        "▁sc",
        "ow"
      ],
      [
        ".\"\n\n",
        "S"
      ],
      [
        "▁wall",
        "s."
      ],
      [
        "▁P",
        "rotect"
      ],
      [
        "▁smart",
        "est"
      ],
      [
        "▁bird",
        "."
      ],
      [
        "▁hun",
        "ger"
      ],
      [
        "▁itself",
        "."
      ],
      [
        "▁jo",
        "y,"
      ],
      [
        "▁together",
        "!\""
      ],
      [
        "▁tw",
        "ig"
      ],
      [
        "lephan",
        "t"
      ],
      [
        "▁brave",
        ","
      ],
      [
        "▁W",
        "ing"
      ],
      [
        "▁res",
        "c"
      ],
      [
        "▁different",
        ","
      ],
      [
        "▁en",
        "ri"
      ],
      [
        "▁E",
        "y"
      ],
      [
        "▁glisten",
        "ed"
      ],
      [
        "▁f",
        "ill"
      ],
      [
        "▁t",
        "ames"
      ],
      [
        "▁mes",
        "s."
      ],
      [
        "▁adm",
        "iring"
      ],
      [
        "har",
        "ing"
      ],
      [
        "▁flut",
        "tered"
      ],
      [
        "▁my",
        "stical"
      ],
      [
        "▁b",
        "all"
      ],
      [
        "r",
        "uth"
      ],
      [
        "▁path",
        "."
      ],
      [
        "▁here",
        "?\""
      ],
      [
        "▁loud",
        ","
      ],
      [
        "▁lo",
        "se"
      ],
      [
        "▁A",
        "mong"
      ],
      [
        "▁per",
        "ked"
      ],
      [
        "os",
        "ed"
      ],
      [
        "▁incl",
        "ud"
      ],
      [
        "▁threat",
        "en"
      ],
      [
        "▁modest",
        "y"
      ],
      [
        "ed",
        "s."
      ],
      [
        "▁watchful",
        "ness"
      ],
      [
        "▁prophe",
        "cy"
      ],
      [
        "j",
        "est"
      ],
      [
        "▁together",
        ",\""
      ],
      [
        "y",
        "s"
      ],
      [
        "▁over",
        "grown"
      ],
      [
        "▁crab",
        "s"
      ],
      [
        "▁lea",
        "ves."
      ],
      [
        "▁goat",
        "'s"
      ],
      [
        "▁T",
        "hat"
      ],
      [
        "▁\"S",
        "he"
      ],
      [
        "▁determ",
        "in"
      ],
      [
        "▁g",
        "iver"
      ],
      [
        "▁fo",
        "re"
      ],
      [
        "▁bl",
        "ow"
      ],
      [
        "▁grew",
        ","
      ],
      [
        "in",
        "e."
      ],
      [
        "ri",
        "ck"
      ],
      [
        "▁def",
        "ines"
      ],
      [
        "▁inde",
        "ed"
      ],
      [
        "▁One",
        "'s"
      ],
      [
        "▁B",
        "e"
      ],
      [
        "▁harmony",
        ".\n</story>"
      ],
      [
        "▁confus",
        "ion"
      ],
      [
        "▁sway",
        "ing"
      ],
      [
        "▁tou",
        "ched"
      ],
      [
        "▁apolog",
        "iz"
      ],
      [
        "▁st",
        "ore"
      ],
      [
        "ul",
        "ar"
      ],
      [
        "▁off",
        ","
      ],
      [
        "▁o",
        "ptimistic"
      ],
      [
        "▁bo",
        "ss"
      ],
      [
        "▁Mo",
        "dest"
      ],
      [
        "▁snow",
        "fl"
      ],
      [
        "▁\n\n",
        "One"
      ],
      [
        "▁how",
        "led,"
      ],
      [
        "▁cardinal",
        "'s"
      ],
      [
        "▁city",
        "'s"
      ],
      [
        "jest",
        "ic"
      ],
      [
        "▁l",
        "ow"
      ],
      [
        "▁mistake",
        ","
      ],
      [
        "▁Sw",
        "immer"
      ],
      [
        "▁feather",
        "s."
      ],
      [
        "▁here",
        "."
      ],
      [
        "▁So",
        "ft"
      ],
      [
        "▁\"",
        "K"
      ],
      [
        "▁fast",
        "."
      ],
      [
        "▁pa",
        "ves"
      ],
      [
        "▁sto",
        "mp"
      ],
      [
        ".\n\nF",
        "eeling"
      ],
      [
        "▁volc",
        "anic"
      ],
      [
        "▁spl",
        "as"
      ],
      [
        "▁friends.\"",
        "\n\nThe"
      ],
      [
        "▁whisp",
        "ering"
      ],
      [
        "▁fear",
        "s"
      ],
      [
        "▁arrogan",
        "ce"
      ],
      [
        "▁tri",
        "ump"
      ],
      [
        "▁spr",
        "ing."
      ],
      [
        "▁V",
        "ulture"
      ],
      [
        "▁her",
        ".\n\nThe"
      ],
      [
        "▁home",
        ".\n\nThe"
      ],
      [
        "▁to",
        "p"
      ],
      [
        "▁other",
        ".\""
      ],
      [
        "▁co",
        "ast"
      ],
      [
        "▁now",
        "here"
      ],
      [
        "!\"\n\n",
        "As"
      ],
      [
        "▁\"L",
        "et"
      ],
      [
        "▁st",
        "ing"
      ],
      [
        "▁t",
        "end"
      ],
      [
        "▁bre",
        "eds"
      ],
      [
        "▁C",
        "oral"
      ],
      [
        "▁dev",
        "ast"
      ],
      [
        "▁cliff",
        "side,"
      ],
      [
        "▁disp",
        "els"
      ],
      [
        "▁fright",
        "ened"
      ],
      [
        "▁city",
        ","
      ],
      [
        "▁family",
        ","
      ],
      [
        "▁H",
        "ar"
      ],
      [
        "a",
        "ct"
      ],
      [
        "▁libra",
        "ry,"
      ],
      [
        "▁see",
        "king"
      ],
      [
        "▁was",
        "."
      ],
      [
        "▁lake",
        "'s"
      ],
      [
        "▁lim",
        "its"
      ],
      [
        "▁truth",
        "s"
      ],
      [
        "▁mountain",
        "s,"
      ],
      [
        "▁sa",
        "ving"
      ],
      [
        "▁whisp",
        "ers"
      ],
      [
        "▁des",
        "ire"
      ],
      [
        "▁For",
        "g"
      ],
      [
        "▁is",
        "n't"
      ],
      [
        "▁na",
        "ive"
      ],
      [
        "▁open",
        "s"
      ],
      [
        "▁solut",
        "ions"
      ],
      [
        "ab",
        "ility"
      ],
      [
        "▁hea",
        "v"
      ],
      [
        "▁lar",
        "ge"
      ],
      [
        "▁gras",
        "s."
      ],
      [
        "▁n",
        "ur"
      ],
      [
        "▁Roo",
        "ster"
      ],
      [
        "ou",
        "rage"
      ],
      [
        "▁no",
        ","
      ],
      [
        "▁respect",
        "."
      ],
      [
        "-",
        "hearted"
      ],
      [
        "▁can",
        "not"
      ],
      [
        "▁song",
        ","
      ],
      [
        "▁strongest",
        ","
      ],
      [
        "▁river",
        "'s"
      ],
      [
        "▁S",
        "er"
      ],
      [
        "▁\"",
        "Just"
      ],
      [
        "▁glen",
        ","
      ],
      [
        "▁sha",
        "king"
      ],
      [
        "▁Re",
        "member,"
      ],
      [
        "▁hill",
        "s,"
      ],
      [
        "▁fool",
        "ish"
      ],
      [
        "▁sun",
        "ken"
      ],
      [
        "▁wise",
        "st"
      ],
      [
        "▁out",
        "come"
      ],
      [
        "▁deser",
        "ted"
      ],
      [
        "ly",
        ".\n\nThe"
      ],
      [
        "▁en",
        "c"
      ],
      [
        "▁puzz",
        "led."
      ],
      [
        "▁shock",
        "ed"
      ],
      [
        "▁T",
        "iger"
      ],
      [
        "▁rel",
        "ie"
      ],
      [
        "▁there",
        ","
      ],
      [
        "st",
        "orm"
      ],
      [
        "▁here",
        ","
      ],
      [
        "▁meet",
        "ing"
      ],
      [
        "▁out",
        "side"
      ],
      [
        "▁eat",
        "."
      ],
      [
        "ot",
        "es"
      ],
      [
        "▁rul",
        "ed"
      ],
      [
        "▁me",
        "?"
      ],
      [
        "bb",
        "ed"
      ],
      [
        "▁no",
        "!"
      ],
      [
        "▁F",
        "in"
      ],
      [
        "▁D",
        "e"
      ],
      [
        "▁po",
        "int"
      ],
      [
        "▁y",
        "ell"
      ],
      [
        "▁better",
        "."
      ],
      [
        "▁marsh",
        ","
      ],
      [
        "▁everyone",
        ","
      ],
      [
        "b",
        "it"
      ],
      [
        "▁Col",
        "or"
      ],
      [
        "▁grow",
        "led,"
      ],
      [
        "▁fore",
        "ver"
      ],
      [
        "▁tra",
        "de"
      ],
      [
        "▁air",
        ","
      ],
      [
        "▁pur",
        "p"
      ],
      [
        "s",
        ".\n\nAs"
      ],
      [
        "▁memor",
        "ial"
      ],
      [
        "▁enri",
        "ches"
      ],
      [
        "▁laughed",
        "."
      ],
      [
        "assion",
        "ate"
      ],
      [
        "▁boast",
        "ful"
      ],
      [
        "▁sun",
        "."
      ],
      [
        "▁t",
        "ir"
      ],
      [
        "▁clos",
        "er,"
      ],
      [
        "▁loud",
        "ly,"
      ],
      [
        "▁bridge",
        "."
      ],
      [
        "we",
        "ll"
      ],
      [
        "▁raccoon",
        ","
      ],
      [
        "▁b",
        "es"
      ],
      [
        "▁Sk",
        "unk"
      ],
      [
        "▁clear",
        "ing"
      ],
      [
        "▁imp",
        "rudent"
      ],
      [
        "▁snat",
        "ch"
      ],
      [
        "▁courtyard",
        ","
      ],
      [
        "ist",
        "ed"
      ],
      [
        "▁G",
        "u"
      ],
      [
        "▁lion",
        "'s"
      ],
      [
        "or",
        "ed"
      ],
      [
        "▁danger",
        "."
      ],
      [
        "▁Lo",
        "yal"
      ],
      [
        "▁want",
        "ing"
      ],
      [
        "▁plateau",
        ","
      ],
      [
        "▁cre",
        "pt"
      ],
      [
        "▁agreement",
        "."
      ],
      [
        "▁confess",
        "ed"
      ],
      [
        "▁adm",
        "it"
      ],
      [
        "▁earn",
        "ed"
      ],
      [
        "▁P",
        "o"
      ],
      [
        "▁sli",
        "pped"
      ],
      [
        "▁walk",
        "ed,"
      ],
      [
        "▁hurt",
        ","
      ],
      [
        "▁comp",
        "l"
      ],
      [
        "▁insp",
        "ires"
      ],
      [
        "l",
        "ing,"
      ],
      [
        "▁m",
        "er"
      ],
      [
        "ain",
        "t"
      ],
      [
        "ve",
        "re"
      ],
      [
        "▁div",
        "ision"
      ],
      [
        "er",
        "ed."
      ],
      [
        "▁frog",
        "s"
      ],
      [
        "▁ent",
        "husiastic"
      ],
      [
        "▁feel",
        "ings"
      ],
      [
        "▁nearb",
        "y,"
      ],
      [
        "▁rememb",
        "ering"
      ],
      [
        "▁reveal",
        "s"
      ],
      [
        "▁dissol",
        "ves"
      ],
      [
        "im",
        "p"
      ],
      [
        "▁bu",
        "g"
      ],
      [
        "co",
        "ck"
      ],
      [
        "▁continu",
        "ed,"
      ],
      [
        "▁Sh",
        "iny"
      ],
      [
        "▁sea",
        "shore"
      ],
      [
        "▁destin",
        "ies"
      ],
      [
        "c",
        "end"
      ],
      [
        "▁oursel",
        "ves"
      ],
      [
        "▁ap",
        "art"
      ],
      [
        "▁\"S",
        "haring"
      ],
      [
        "▁ro",
        "ot"
      ],
      [
        "▁dec",
        "ision"
      ],
      [
        "▁love",
        "ly"
      ],
      [
        "▁There",
        "'s"
      ],
      [
        "c",
        "her"
      ],
      [
        "▁in",
        "vest"
      ],
      [
        "▁Ser",
        "ious"
      ],
      [
        "▁bran",
        "che"
      ],
      [
        "▁wound",
        "s"
      ],
      [
        "▁self",
        "-"
      ],
      [
        "▁div",
        "ided"
      ],
      [
        "▁secret",
        "ly"
      ],
      [
        "▁help",
        ".\n\nThe"
      ],
      [
        "▁plain",
        ","
      ],
      [
        "▁ignor",
        "ed"
      ],
      [
        "▁nur",
        "t"
      ],
      [
        "▁barri",
        "ers"
      ],
      [
        "▁pol",
        "icy"
      ],
      [
        "▁t",
        "ight"
      ],
      [
[...]
